{"\n":0," ":1,"!":2,"\"":3,"#":4,"$":5,"%":6,"&":7,"'":8,"(":9,")":10,"*":11,"+":12,",":13,"-":14,".":15,"/":16,"0":17,"1":18,"2":19,"3":20,"4":21,"5":22,"6":23,"7":24,"8":25,"9":26,":":27,";":28,"<":29,"=":30,">":31,"?":32,"@":33,"A":34,"B":35,"C":36,"D":37,"E":38,"F":39,"G":40,"H":41,"I":42,"J":43,"K":44,"L":45,"M":46,"N":47,"O":48,"P":49,"Q":50,"R":51,"S":52,"T":53,"U":54,"V":55,"W":56,"X":57,"Y":58,"Z":59,"[":60,"\\":61,"]":62,"^":63,"_":64,"a":65,"b":66,"c":67,"d":68,"e":69,"f":70,"g":71,"h":72,"i":73,"j":74,"k":75,"l":76,"m":77,"n":78,"o":79,"p":80,"q":81,"r":82,"s":83,"t":84,"u":85,"v":86,"w":87,"x":88,"y":89,"z":90,"{":91,"|":92,"}":93,"~":94,"¡":95,"¢":96,"£":97,"¤":98,"¥":99,"¦":100,"§":101,"©":102,"¬":103,"®":104,"°":105,"±":106,"¶":107,"·":108,"¿":109,"À":110,"Á":111,"Â":112,"Ã":113,"Å":114,"Ç":115,"È":116,"É":117,"Ð":118,"Ó":119,"Ô":120,"Ö":121,"×":122,"Ø":123,"Ù":124,"Ú":125,"Û":126,"Ü":127,"ß":128,"à":129,"á":130,"â":131,"ã":132,"ä":133,"å":134,"æ":135,"ç":136,"è":137,"é":138,"ê":139,"ë":140,"ì":141,"í":142,"î":143,"ï":144,"ð":145,"ñ":146,"ò":147,"ó":148,"ô":149,"õ":150,"ö":151,"÷":152,"ø":153,"ù":154,"ú":155,"û":156,"ü":157,"ý":158,"þ":159,"Ā":160,"ā":161,"Ă":162,"ă":163,"Ą":164,"ą":165,"ć":166,"ĉ":167,"Č":168,"č":169,"Ď":170,"Đ":171,"đ":172,"ē":173,"Ė":174,"ė":175,"Ę":176,"ę":177,"ě":178,"Ğ":179,"ğ":180,"Ģ":181,"Ĥ":182,"Ħ":183,"ħ":184,"ī":185,"Į":186,"į":187,"İ":188,"ı":189,"ĵ":190,"ĸ":191,"ĺ":192,"ļ":193,"Ł":194,"ł":195,"Ň":196,"ŋ":197,"Ō":198,"ō":199,"ŏ":200,"œ":201,"Ř":202,"ř":203,"ś":204,"Ŝ":205,"ŝ":206,"Ş":207,"ş":208,"Š":209,"š":210,"Ť":211,"ť":212,"ŧ":213,"ŭ":214,"ů":215,"ű":216,"ź":217,"Ż":218,"ż":219,"Ž":220,"ž":221,"Ɓ":222,"Ǝ":223,"ƒ":224,"Ɠ":225,"Ɣ":226,"ƛ":227,"Ɲ":228,"ơ":229,"Ʀ":230,"Ƴ":231,"ƽ":232,"ǟ":233,"ǰ":234,"Ǿ":235,"ȅ":236,"Ȋ":237,"ș":238,"ț":239,"ɑ":240,"ɕ":241,"ə":242,"ɛ":243,"ɞ":244,"ɣ":245,"ɨ":246,"ɪ":247,"ɴ":248,"ʀ":249,"ʃ":250,"ʊ":251,"ʒ":252,"ʔ":253,"ʚ":254,"ʞ":255,"ʻ":256,"ˆ":257,"ˇ":258,"ˈ":259,"ˌ":260,"ː":261,"˹":262,"˼":263,"̀":264,"́":265,"̃":266,"̄":267,"̅":268,"̇":269,"̈":270,"̉":271,"̊":272,"̋":273,"̌":274,"̍":275,"̐":276,"̖":277,"̗":278,"̝":279,"̠":280,"̣":281,"̤":282,"̥":283,"̧":284,"̨":285,"̩":286,"̬":287,"̮":288,"̯":289,"̲":290,"̳":291,"̵":292,"̶":293,"̷":294,"̸":295,"͛":296,"͜":297,"͠":298,"͡":299,"ͦ":300,"Ά":301,"Έ":302,"ΐ":303,"Α":304,"Η":305,"Θ":306,"Ι":307,"Μ":308,"Ξ":309,"Ρ":310,"Σ":311,"Υ":312,"Φ":313,"Ψ":314,"Ω":315,"Ϋ":316,"ά":317,"έ":318,"ή":319,"ί":320,"α":321,"β":322,"γ":323,"δ":324,"ε":325,"ζ":326,"η":327,"θ":328,"ι":329,"κ":330,"λ":331,"μ":332,"ν":333,"ξ":334,"ο":335,"π":336,"ρ":337,"ς":338,"σ":339,"τ":340,"υ":341,"φ":342,"χ":343,"ω":344,"ό":345,"ώ":346,"Ϟ":347,"ϻ":348,"Ј":349,"Ћ":350,"А":351,"Б":352,"В":353,"Г":354,"Д":355,"Й":356,"К":357,"М":358,"О":359,"П":360,"Р":361,"С":362,"Т":363,"У":364,"Х":365,"Ч":366,"Я":367,"а":368,"б":369,"в":370,"г":371,"д":372,"е":373,"ж":374,"з":375,"и":376,"й":377,"к":378,"л":379,"м":380,"н":381,"о":382,"п":383,"р":384,"с":385,"т":386,"у":387,"х":388,"ц":389,"ч":390,"ш":391,"ъ":392,"ы":393,"ь":394,"э":395,"ю":396,"я":397,"є":398,"і":399,"ј":400,"ћ":401,"Ѣ":402,"Ѧ":403,"҉":404,"Ҏ":405,"Ґ":406,"ґ":407,"қ":408,"Ҩ":409,"ү":410,"Ұ":411,"Ҳ":412,"ҳ":413,"ҷ":414,"ҽ":415,"Ӎ":416,"ө":417,"Բ":418,"Ի":419,"Կ":420,"Պ":421,"ա":422,"բ":423,"ե":424,"է":425,"ը":426,"ի":427,"լ":428,"խ":429,"կ":430,"հ":431,"ձ":432,"ղ":433,"մ":434,"յ":435,"ն":436,"ո":437,"չ":438,"պ":439,"ռ":440,"ս":441,"վ":442,"տ":443,"ր":444,"ց":445,"ւ":446,"փ":447,"ք":448,"ֆ":449,"ִ":450,"ּ":451,"ֿ":452,"א":453,"ב":454,"ג":455,"ד":456,"ה":457,"ו":458,"ז":459,"ח":460,"ט":461,"י":462,"ך":463,"כ":464,"ל":465,"ם":466,"מ":467,"ן":468,"נ":469,"ס":470,"ע":471,"פ":472,"צ":473,"ר":474,"ש":475,"ת":476,"؋":477,"،":478,"؍":479,"؎":480,"؏":481,"ؐ":482,"ؑ":483,"ؒ":484,"ؓ":485,"؛":486,"؟":487,"ء":488,"آ":489,"أ":490,"ؤ":491,"إ":492,"ئ":493,"ا":494,"ب":495,"ة":496,"ت":497,"ث":498,"ج":499,"ح":500,"خ":501,"د":502,"ذ":503,"ر":504,"ز":505,"س":506,"ش":507,"ص":508,"ض":509,"ط":510,"ظ":511,"ع":512,"غ":513,"ػ":514,"ؼ":515,"ؽ":516,"ؾ":517,"ؿ":518,"ـ":519,"ف":520,"ق":521,"ك":522,"ل":523,"م":524,"ن":525,"ه":526,"و":527,"ى":528,"ي":529,"ً":530,"ٌ":531,"ٍ":532,"َ":533,"ُ":534,"ِ":535,"ّ":536,"ْ":537,"ٓ":538,"ٔ":539,"ٕ":540,"ٖ":541,"ٗ":542,"٘":543,"ٙ":544,"ٚ":545,"ٛ":546,"ٜ":547,"ٝ":548,"ٞ":549,"ٟ":550,"٠":551,"١":552,"٢":553,"٣":554,"٤":555,"٥":556,"٦":557,"٧":558,"٨":559,"٩":560,"٪":561,"٫":562,"٬":563,"٭":564,"ٮ":565,"ٯ":566,"ٰ":567,"ٱ":568,"ٲ":569,"ٳ":570,"ٴ":571,"ٹ":572,"ٺ":573,"ٻ":574,"ټ":575,"ٽ":576,"پ":577,"ٿ":578,"ڀ":579,"ځ":580,"ڂ":581,"ڃ":582,"ڄ":583,"څ":584,"چ":585,"ڇ":586,"ڈ":587,"ډ":588,"ڊ":589,"ڋ":590,"ڌ":591,"ڍ":592,"ڎ":593,"ڏ":594,"ڐ":595,"ڑ":596,"ڒ":597,"ړ":598,"ڔ":599,"ڕ":600,"ږ":601,"ڗ":602,"ژ":603,"ڙ":604,"ښ":605,"ڛ":606,"ڜ":607,"ڝ":608,"ڞ":609,"ڟ":610,"ڠ":611,"ڣ":612,"ڤ":613,"ڦ":614,"ڨ":615,"ک":616,"ڪ":617,"ګ":618,"ڭ":619,"گ":620,"ڰ":621,"ڱ":622,"ڲ":623,"ڳ":624,"ڵ":625,"ڶ":626,"ڷ":627,"ڸ":628,"ڹ":629,"ں":630,"ڻ":631,"ڼ":632,"ڽ":633,"ھ":634,"ڿ":635,"ۀ":636,"ہ":637,"ۂ":638,"ۃ":639,"ۄ":640,"ۅ":641,"ۆ":642,"ۇ":643,"ۈ":644,"ۉ":645,"ۊ":646,"ۋ":647,"ی":648,"ۍ":649,"ێ":650,"ۏ":651,"ې":652,"ۑ":653,"ے":654,"ۓ":655,"۔":656,"ە":657,"ۗ":658,"ۘ":659,"ۙ":660,"ۚ":661,"ۛ":662,"ۜ":663,"۞":664,"ۡ":665,"ۢ":666,"ۣ":667,"ۤ":668,"ۥ":669,"ۦ":670,"ۧ":671,"ۨ":672,"۩":673,"۪":674,"۫":675,"۬":676,"۰":677,"۱":678,"۲":679,"۳":680,"۴":681,"۵":682,"۶":683,"۷":684,"۸":685,"۹":686,"ۺ":687,"ۼ":688,"۽":689,"۾":690,"ۿ":691,"܀":692,"ܒ":693,"ܓ":694,"ܢ":695,"ܨ":696,"ܪ":697,"ܵ":698,"ݐ":699,"ݒ":700,"ݖ":701,"ݘ":702,"ݛ":703,"ݢ":704,"ݥ":705,"ݦ":706,"ݧ":707,"ݨ":708,"ݩ":709,"ݪ":710,"ހ":711,"ވ":712,"ެ":713,"ߙ":714,"ࡗ":715,"ࢦ":716,"ࢪ":717,"࣪":718,"ँ":719,"ं":720,"ः":721,"अ":722,"आ":723,"इ":724,"ई":725,"उ":726,"ए":727,"ओ":728,"क":729,"ख":730,"ग":731,"घ":732,"ङ":733,"च":734,"छ":735,"ज":736,"झ":737,"ञ":738,"ट":739,"ठ":740,"ड":741,"ढ":742,"ण":743,"त":744,"थ":745,"द":746,"ध":747,"न":748,"प":749,"फ":750,"ब":751,"भ":752,"म":753,"य":754,"र":755,"ल":756,"व":757,"श":758,"ष":759,"स":760,"ह":761,"़":762,"ा":763,"ि":764,"ी":765,"ु":766,"ू":767,"ृ":768,"े":769,"ै":770,"ॉ":771,"ो":772,"ौ":773,"्":774,"॒":775,"ॡ":776,"।":777,"॥":778,"०":779,"१":780,"८":781,"অ":782,"আ":783,"ই":784,"উ":785,"এ":786,"ঔ":787,"ক":788,"খ":789,"ঘ":790,"ছ":791,"জ":792,"ট":793,"ড":794,"ত":795,"দ":796,"ধ":797,"ন":798,"ব":799,"ভ":800,"ম":801,"য":802,"র":803,"ল":804,"শ":805,"স":806,"়":807,"া":808,"ি":809,"ু":810,"ে":811,"ো":812,"ৌ":813,"্":814,"ਂ":815,"ਇ":816,"ਈ":817,"ਕ":818,"ਜ":819,"ਥ":820,"ਧ":821,"ਪ":822,"ਬ":823,"ਮ":824,"ਰ":825,"ਲ":826,"ਸ":827,"ਹ":828,"ਾ":829,"ਿ":830,"ੀ":831,"ੇ":832,"ੈ":833,"ੋ":834,"ੰ":835,"ੱ":836,"ં":837,"ક":838,"ખ":839,"ચ":840,"છ":841,"ટ":842,"ડ":843,"થ":844,"ધ":845,"પ":846,"ર":847,"સ":848,"હ":849,"ા":850,"િ":851,"ી":852,"ુ":853,"ે":854,"ો":855,"୪":856,"୭":857,"ஐ":858,"ஓ":859,"ற":860,"ం":861,"ఇ":862,"ఉ":863,"ఎ":864,"క":865,"చ":866,"డ":867,"ద":868,"ధ":869,"న":870,"ప":871,"య":872,"ల":873,"వ":874,"స":875,"హ":876,"ా":877,"ి":878,"ీ":879,"ు":880,"ే":881,"ో":882,"్":883,"ಂ":884,"ಈ":885,"ಕ":886,"ಡ":887,"ಧ":888,"ನ":889,"ಲ":890,"ಸ":891,"ಿ":892,"ೋ":893,"್":894,"ഉ":895,"ങ":896,"ത":897,"ധ":898,"ന":899,"പ":900,"ള":901,"സ":902,"ി":903,"്":904,"ආ":905,"උ":906,"ක":907,"න":908,"ම":909,"ය":910,"ල":911,"ව":912,"ශ":913,"ස":914,"්":915,"ෑ":916,"ි":917,"ෙ":918,"ก":919,"ค":920,"ฉ":921,"ณ":922,"ด":923,"ถ":924,"ท":925,"น":926,"บ":927,"ป":928,"พ":929,"ม":930,"ย":931,"ล":932,"ส":933,"ห":934,"อ":935,"ฮ":936,"ะ":937,"ั":938,"า":939,"ิ":940,"ี":941,"ุ":942,"เ":943,"ไ":944,"ๅ":945,"่":946,"้":947,"๋":948,"๑":949,"๛":950,"ກ":951,"ຂ":952,"ຈ":953,"ຖ":954,"ທ":955,"ນ":956,"ພ":957,"ມ":958,"ຢ":959,"ະ":960,"າ":961,"ົ":962,"ເ":963,"່":964,"້":965,"໑":966,"༄":967,"༅":968,"༺":969,"ཻ":970,"࿅":971,"࿑":972,"Ⴢ":973,"ა":974,"დ":975,"ე":976,"თ":977,"ი":978,"კ":979,"მ":980,"ნ":981,"რ":982,"ს":983,"უ":984,"ქ":985,"ღ":986,"ᄑ":987,"ᄒ":988,"ᅲ":989,"ሂ":990,"ህ":991,"ለ":992,"ላ":993,"ል":994,"ም":995,"ሩ":996,"ር":997,"ሳ":998,"ስ":999,"ቅ":1000,"በ":1001,"ቦ":1002,"ታ":1003,"ት":1004,"ነ":1005,"ኔ":1006,"ን":1007,"ኝ":1008,"አ":1009,"እ":1010,"ወ":1011,"ው":1012,"ዎ":1013,"ዘ":1014,"ይ":1015,"ዴ":1016,"ድ":1017,"ጋ":1018,"ጎ":1019,"ጠ":1020,"ጣ":1021,"ጥ":1022,"ፈ":1023,"ፍ":1024,"ᑐ":1025,"ᓄ":1026,"ᓅ":1027,"ᓆ":1028,"ᓘ":1029,"ញ":1030,"ន":1031,"ព":1032,"ភ":1033,"េ":1034,"ំ":1035,"្":1036,"᪣":1037,"ᬼ":1038,"ᭁ":1039,"᭄":1040,"ᴀ":1041,"ᴋ":1042,"ᴗ":1043,"᷂":1044,"ḑ":1045,"ḭ":1046,"Ḿ":1047,"ḿ":1048,"Ṁ":1049,"Ṃ":1050,"ṇ":1051,"Ṉ":1052,"ṛ":1053,"Ṝ":1054,"ṣ":1055,"Ṧ":1056,"ṩ":1057,"ṭ":1058,"Ṽ":1059,"Ạ":1060,"Ẹ":1061,"ẹ":1062,"Ể":1063,"ệ":1064,"ị":1065,"Ọ":1066,"ọ":1067,"ố":1068,"ở":1069,"Ụ":1070,"ụ":1071,"ỳ":1072,"ỹ":1073,"Ἄ":1074,"‐":1075,"‛":1076,"‟":1077,"†":1078,"‡":1079,"•":1080,"′":1081,"‹":1082,"›":1083,"※":1084,"‿":1085,"⁀":1086,"⁄":1087,"₥":1088,"₦":1089,"₩":1090,"₪":1091,"€":1092,"₳":1093,"₹":1094,"₼":1095,"₽":1096,"⃕":1097,"⃟":1098,"⃢":1099,"⃣":1100,"⃫":1101,"℘":1102,"←":1103,"↑":1104,"→":1105,"↓":1106,"↔":1107,"↙":1108,"↜":1109,"↝":1110,"↣":1111,"↤":1112,"↩":1113,"↫":1114,"↯":1115,"↲":1116,"↴":1117,"↷":1118,"⇄":1119,"⇐":1120,"⇜":1121,"⇠":1122,"⇡":1123,"⇢":1124,"⇣":1125,"⇦":1126,"∀":1127,"∂":1128,"∇":1129,"−":1130,"√":1131,"∞":1132,"∟":1133,"∫":1134,"∴":1135,"≈":1136,"≠":1137,"≤":1138,"≥":1139,"≦":1140,"≧":1141,"≯":1142,"⊙":1143,"⋆":1144,"⌘":1145,"⏆":1146,"⏩":1147,"⏪":1148,"─":1149,"┇":1150,"═":1151,"╚":1152,"╝":1153,"╦":1154,"╫":1155,"╬":1156,"▂":1157,"▃":1158,"▌":1159,"▐":1160,"■":1161,"□":1162,"▪":1163,"▫":1164,"▲":1165,"▶":1166,"▷":1167,"►":1168,"▼":1169,"▽":1170,"◀":1171,"◄":1172,"◆":1173,"◇":1174,"◈":1175,"◉":1176,"◊":1177,"○":1178,"◍":1179,"◎":1180,"●":1181,"◕":1182,"◝":1183,"◣":1184,"◤":1185,"◥":1186,"◦":1187,"◩":1188,"◪":1189,"◾":1190,"☀":1191,"☁":1192,"☂":1193,"☃":1194,"☄":1195,"★":1196,"☆":1197,"☑":1198,"☔":1199,"☘":1200,"☚":1201,"☛":1202,"☜":1203,"☝":1204,"☠":1205,"☹":1206,"☺":1207,"☻":1208,"☼":1209,"☽":1210,"☿":1211,"♀":1212,"♂":1213,"♃":1214,"♄":1215,"♈":1216,"♉":1217,"♊":1218,"♋":1219,"♌":1220,"♍":1221,"♎":1222,"♏":1223,"♒":1224,"♓":1225,"♚":1226,"♛":1227,"♠":1228,"♡":1229,"♢":1230,"♣":1231,"♤":1232,"♥":1233,"♦":1234,"♩":1235,"♪":1236,"♫":1237,"♬":1238,"♭":1239,"♯":1240,"⚒":1241,"⚘":1242,"⚠":1243,"⚡":1244,"⚫":1245,"⚽":1246,"⛳":1247,"⛺":1248,"✅":1249,"✇":1250,"✈":1251,"✋":1252,"✌":1253,"✍":1254,"✓":1255,"✔":1256,"✖":1257,"✗":1258,"✘":1259,"✜":1260,"✞":1261,"✦":1262,"✧":1263,"✨":1264,"✫":1265,"✭":1266,"✮":1267,"✯":1268,"✳":1269,"✴":1270,"✷":1271,"✿":1272,"❀":1273,"❌":1274,"❒":1275,"❓":1276,"❔":1277,"❕":1278,"❖":1279,"❗":1280,"❝":1281,"❞":1282,"❢":1283,"❣":1284,"❤":1285,"❥":1286,"❦":1287,"❧":1288,"❶":1289,"➓":1290,"➘":1291,"➟":1292,"➡":1293,"➢":1294,"➥":1295,"➬":1296,"⠀":1297,"⦿":1298,"⬅":1299,"⬆":1300,"⬸":1301,"⭐":1302,"⭕":1303,"⸁":1304,"⸙":1305,"、":1306,"。":1307,"〇":1308,"〈":1309,"〉":1310,"》":1311,"「":1312,"」":1313,"『":1314,"』":1315,"【":1316,"】":1317,"〖":1318,"〗":1319,"あ":1320,"い":1321,"う":1322,"え":1323,"お":1324,"か":1325,"が":1326,"く":1327,"さ":1328,"じ":1329,"な":1330,"の":1331,"へ":1332,"ほ":1333,"ょ":1334,"よ":1335,"り":1336,"わ":1337,"を":1338,"ん":1339,"イ":1340,"エ":1341,"ク":1342,"コ":1343,"サ":1344,"シ":1345,"ス":1346,"タ":1347,"チ":1348,"ッ":1349,"ツ":1350,"ト":1351,"ド":1352,"ノ":1353,"バ":1354,"パ":1355,"ピ":1356,"マ":1357,"ミ":1358,"ム":1359,"ュ":1360,"ヮ":1361,"ン":1362,"・":1363,"ー":1364,"ㄨ":1365,"一":1366,"上":1367,"之":1368,"了":1369,"云":1370,"以":1371,"传":1372,"位":1373,"何":1374,"你":1375,"刀":1376,"力":1377,"午":1378,"南":1379,"厩":1380,"发":1381,"古":1382,"可":1383,"吗":1384,"嘅":1385,"国":1386,"场":1387,"報":1388,"多":1389,"夢":1390,"如":1391,"子":1392,"学":1393,"它":1394,"少":1395,"屋":1396,"年":1397,"庆":1398,"彙":1399,"彩":1400,"很":1401,"情":1402,"惠":1403,"感":1404,"我":1405,"打":1406,"教":1407,"料":1408,"斯":1409,"於":1410,"月":1411,"机":1412,"機":1413,"泊":1414,"波":1415,"爱":1416,"瑞":1417,"用":1418,"电":1419,"発":1420,"發":1421,"的":1422,"真":1423,"着":1424,"示":1425,"科":1426,"端":1427,"篇":1428,"終":1429,"纳":1430,"者":1431,"职":1432,"背":1433,"节":1434,"花":1435,"菜":1436,"葬":1437,"藍":1438,"蝶":1439,"要":1440,"詞":1441,"語":1442,"謝":1443,"话":1444,"语":1445,"谷":1446,"超":1447,"辛":1448,"迪":1449,"邏":1450,"钱":1451,"际":1452,"隨":1453,"雨":1454,"音":1455,"顯":1456,"鲁":1457,"ꓘ":1458,"ꓤ":1459,"ꔫ":1460,"ꖾ":1461,"ꟽ":1462,"ꦿ":1463,"ꪆ":1464,"ꪝ":1465,"ꫀ":1466,"ꫛ":1467,"각":1468,"금":1469,"길":1470,"나":1471,"는":1472,"다":1473,"대":1474,"래":1475,"리":1476,"마":1477,"만":1478,"문":1479,"방":1480,"법":1481,"서":1482,"손":1483,"솔":1484,"송":1485,"시":1486,"양":1487,"얼":1488,"에":1489,"연":1490,"요":1491,"우":1492,"정":1493,"져":1494,"조":1495,"좋":1496,"지":1497,"직":1498,"평":1499,"하":1500,"할":1501,"해":1502,"형":1503,"화":1504,"효":1505,"희":1506,"﮶":1507,"﮼":1508,"﴾":1509,"﴿":1510,"︎":1511,"️":1512,"�":1513,"𐄒":1514,"𐎚":1515,"𐭣":1516,"𐭦":1517,"𐭪":1518,"𐭬":1519,"𓂅":1520,"𓆩":1521,"𓆪":1522,"𖣂":1523,"𖣴":1524,"𖤈":1525,"𖤍":1526,"🅚":1527,"🅛":1528,"🅜":1529,"🅦":1530,"🇦":1531,"🇧":1532,"🇨":1533,"🇩":1534,"🇬":1535,"🇮":1536,"🇱":1537,"🇲":1538,"🇵":1539,"🇶":1540,"🇷":1541,"🇸":1542,"🇹":1543,"🇺":1544,"🇿":1545,"🌆":1546,"🌈":1547,"🌍":1548,"🌎":1549,"🌓":1550,"🌔":1551,"🌙":1552,"🌚":1553,"🌛":1554,"🌜":1555,"🌝":1556,"🌞":1557,"🌟":1558,"🌤":1559,"🌧":1560,"🌱":1561,"🌵":1562,"🌷":1563,"🌸":1564,"🌹":1565,"🌺":1566,"🌻":1567,"🌼":1568,"🌿":1569,"🍀":1570,"🍂":1571,"🍃":1572,"🍇":1573,"🍉":1574,"🍕":1575,"🍩":1576,"🍰":1577,"🍷":1578,"🍻":1579,"🍼":1580,"🍾":1581,"🍿":1582,"🎀":1583,"🎁":1584,"🎃":1585,"🎅":1586,"🎈":1587,"🎞":1588,"🎥":1589,"🎧":1590,"🎨":1591,"🎯":1592,"🎵":1593,"🎶":1594,"🎻":1595,"🎼":1596,"🏃":1597,"🏆":1598,"🏊":1599,"🏖":1600,"🏣":1601,"🏭":1602,"🏳":1603,"🏹":1604,"🏻":1605,"🏼":1606,"🏽":1607,"🏾":1608,"🏿":1609,"🐍":1610,"🐒":1611,"🐕":1612,"🐠":1613,"🐢":1614,"🐸":1615,"🐾":1616,"👀":1617,"👃":1618,"👅":1619,"👆":1620,"👇":1621,"👈":1622,"👉":1623,"👊":1624,"👋":1625,"👌":1626,"👍":1627,"👎":1628,"👑":1629,"👕":1630,"👠":1631,"👢":1632,"👤":1633,"👧":1634,"👨":1635,"👩":1636,"👭":1637,"👰":1638,"👲":1639,"👳":1640,"👾":1641,"💀":1642,"💃":1643,"💅":1644,"💇":1645,"💈":1646,"💋":1647,"💍":1648,"💐":1649,"💒":1650,"💓":1651,"💔":1652,"💕":1653,"💖":1654,"💗":1655,"💘":1656,"💙":1657,"💚":1658,"💛":1659,"💜":1660,"💝":1661,"💞":1662,"💠":1663,"💡":1664,"💣":1665,"💦":1666,"💪":1667,"💫":1668,"💮":1669,"💯":1670,"💰":1671,"💷":1672,"💻":1673,"📄":1674,"📑":1675,"📚":1676,"📛":1677,"📥":1678,"📩":1679,"📮":1680,"📲":1681,"📷":1682,"📸":1683,"📿":1684,"🔆":1685,"🔈":1686,"🔐":1687,"🔒":1688,"🔕":1689,"🔗":1690,"🔞":1691,"🔥":1692,"🔫":1693,"🔱":1694,"🔴":1695,"🔶":1696,"🔸":1697,"🔹":1698,"🔺":1699,"🕊":1700,"🕌":1701,"🕘":1702,"🖕":1703,"🖤":1704,"🖼":1705,"🗯":1706,"🗿":1707,"😀":1708,"😁":1709,"😂":1710,"😃":1711,"😄":1712,"😅":1713,"😆":1714,"😇":1715,"😈":1716,"😉":1717,"😊":1718,"😋":1719,"😌":1720,"😍":1721,"😎":1722,"😏":1723,"😐":1724,"😑":1725,"😒":1726,"😔":1727,"😕":1728,"😘":1729,"😛":1730,"😜":1731,"😝":1732,"😠":1733,"😢":1734,"😤":1735,"😦":1736,"😧":1737,"😨":1738,"😩":1739,"😪":1740,"😬":1741,"😭":1742,"😮":1743,"😯":1744,"😱":1745,"😲":1746,"😳":1747,"😵":1748,"😷":1749,"😹":1750,"😻":1751,"😽":1752,"😿":1753,"🙁":1754,"🙂":1755,"🙃":1756,"🙄":1757,"🙅":1758,"🙆":1759,"🙇":1760,"🙈":1761,"🙊":1762,"🙋":1763,"🙌":1764,"🙏":1765,"🚌":1766,"🚓":1767,"🚣":1768,"🚨":1769,"🚫":1770,"🚭":1771,"🚵":1772,"🚶":1773,"🚷":1774,"🛌":1775,"🛐":1776,"🛒":1777,"🛫":1778,"🛰":1779,"🟥":1780,"🤍":1781,"🤎":1782,"🤐":1783,"🤒":1784,"🤓":1785,"🤔":1786,"🤕":1787,"🤚":1788,"🤟":1789,"🤠":1790,"🤣":1791,"🤤":1792,"🤧":1793,"🤨":1794,"🤩":1795,"🤪":1796,"🤭":1797,"🤲":1798,"🤸":1799,"🤹":1800,"🥀":1801,"🥇":1802,"🥰":1803,"🥺":1804,"🦋":1805,"🦦":1806,"🦯":1807,"🦼":1808,"🦽":1809,"🧐":1810,"🧑":1811,"🧖":1812,"🧚":1813,"🧝":1814,"🧸":1815,"هه":1816,"ان":1817," ج":1818," ا":1819," م":1820," ڪ":1821," ت":1822,"هههه":1823,".\n":1824,"هي":1825," آ":1826," س":1827," و":1828,"ري":1829," جي":1830,"هن":1831," پ":1832," ک":1833,"ين":1834,"ون":1835," ه":1836," ب":1837," ن":1838," آهي":1839,"ار":1840,"يو":1841,"لا":1842," ۾":1843," ٿ":1844,"ئي":1845,"ال":1846," کي":1847," ر":1848,"يا":1849,"ــ":1850," ۽":1851,"هههههههه":1852," جو":1853," ان":1854,"ور":1855,"لي":1856,"ند":1857,"جي":1858," گ":1859," ته":1860," ش":1861,"ائ":1862," ع":1863,"نهن":1864," د":1865," ڏ":1866," لا":1867," تي":1868," خ":1869," چ":1870," ح":1871," اس":1872,"ام":1873," ف":1874,"هو":1875," ،":1876," .":1877," ڪري":1878,"تي":1879,"دي":1880,"اڻ":1881,"ءِ":1882,"رو":1883," کان":1884," هڪ":1885," سان":1886,"اري":1887," ل":1888," ٻ":1889," به":1890," ٿي":1891," ڪر":1892," نه":1893,"اب":1894," ق":1895,"دا":1896,"ير":1897," ط":1898,"اس":1899,"ائي":1900,"يڪ":1901," ص":1902," آهن":1903," ڪرڻ":1904," هو":1905,"ــــ":1906," تو":1907," ال":1908,"هر":1909,"ني":1910,"دو":1911," ٿو":1912,"هان":1913,"مي":1914," اي":1915," هههههههه":1916,"ها":1917,"ڪي":1918," لاءِ":1919," هن":1920," ڇ":1921,"ءَ":1922,"ول":1923," پي":1924," يا":1925,"نهنجي":1926,"ست":1927," مو":1928,"را":1929," سگ":1930," ي":1931," ڊ":1932,"ٽي":1933,"جو":1934," ڪيو":1935,"سي":1936,"اي":1937," ڪي":1938," اسان":1939,"ڏهن":1940,"لو":1941," من":1942,"ات":1943,"قي":1944," هي":1945," (":1946," ز":1947,"نگ":1948," توهان":1949," جا":1950," اهو":1951,"اهي":1952,"ائين":1953," مان":1954,"قت":1955,"ڪو":1956,"ھن":1957,"اني":1958," ڪند":1959," ٿا":1960," ڳ":1961,"ڙي":1962,"ھي":1963," .\n":1964,"ههه":1965,"اد":1966," پر":1967," مع":1968," پو":1969,"رين":1970," \"":1971," وي":1972,"ئن":1973," مي":1974," وڌ":1975," ٽ":1976,"!\n":1977,"رف":1978," ئي":1979,"بي":1980," بي":1981," ڪو":1982," وا":1983," ڪم":1984," رو":1985," ڀ":1986,"بر":1987," لاء":1988," رهي":1989,"شن":1990," مون":1991," ويو":1992,"اص":1993," پنهنجي":1994,"تو":1995,"له":1996,"از":1997," ما":1998," سو":1999,"مت":2000,"ئين":2001," طور":2002,"ورت":2003," او":2004,"اف":2005,"کي":2006," وڃ":2007," است":2008,"ٽر":2009,"گر":2010,"ڏي":2011,"اا":2012,"هڻ":2013," ض":2014,"عم":2015,"اڻي":2016,"؟\n":2017," غ":2018,"گي":2019,"اڪ":2020," سڀ":2021,"هم":2022,"سم":2023," ڏين":2024,"سٽ":2025,"مون":2026,"مل":2027,"،\n":2028,"وي":2029," ذ":2030," انهن":2031,"الي":2032," خو":2033," مل":2034," وين":2035,"در":2036,"تر":2037," ھ":2038,"عي":2039,"ارو":2040,"چي":2041," سي":2042," -":2043," ماڻ":2044," وقت":2045," هون":2046,"ڙو":2047," مح":2048," سم":2049," وڌيڪ":2050,"20":2051," ك":2052,"سو":2053,"ڪا":2054," په":2055,"نيا":2056," في":2057," هههه":2058," سال":2059," آھي":2060," بر":2061," گهر":2062,"من":2063,"عمال":2064," ڏي":2065,"جهه":2066,"مان":2067,"صو":2068,"نا":2069,"خت":2070," اين":2071," ڪئي":2072," استعمال":2073," در":2074,"دار":2075,"اهو":2076," ور":2077," هههههههههههه":2078," هئي":2079," شي":2080," تائين":2081,"ــــــــ":2082,"بو":2083," واري":2084," سر":2085," ڳال":2086,"ائڻ":2087," مش":2088,"ڪن":2089," تع":2090," اڳ":2091,"نو":2092,"پي":2093," تر":2094,"اه":2095," مس":2096,"اسان":2097," مر":2098," ڪريو":2099,"في":2100," ري":2101," هر":2102,"زي":2103,"جن":2104,"مو":2105," جيڪو":2106,"انهن":2107," ڇا":2108," ٺ":2109," ٿين":2110," جنهن":2111,"فت":2112," چيو":2113," ڪن":2114," ڪنهن":2115,"ندي":2116,"ما":2117,"پر":2118,"ڪر":2119," سگهي":2120," نظ":2121,"يت":2122," مق":2123,"اصل":2124,"سان":2125," گڏ":2126," وڃي":2127," ڏينهن":2128,"in":2129," جن":2130,"مام":2131,"ڪڏهن":2132,"ئر":2133,"هڪ":2134,"ندس":2135," ڪجهه":2136,"ارن":2137,"اح":2138,"ٺي":2139," رک":2140," ڊي":2141,"هههههههههههه":2142,":\n":2143," جيڪي":2144,"نهنجو":2145,"ئون":2146,"پو":2147," لي":2148,"مين":2149,"ٿي":2150,"رح":2151," ڌ":2152," حاصل":2153," لڳ":2154,"جود":2155,"بل":2156," اهي":2157," شا":2158," ضر":2159,"ڪل":2160,"شي":2161," ٻڌ":2162," سن":2163," ٽي":2164,"ڻي":2165,"ثر":2166," نو":2167,"روع":2168,"بت":2169," هئ":2170," مط":2171," گه":2172," اع":2173," ناهي":2174," سا":2175,"ندو":2176,"er":2177," شروع":2178," دو":2179," از":2180,"ايو":2181,"ڪار":2182," اه":2183,")\n":2184,"لم":2185," تمام":2186," پاڻ":2187,"سن":2188," ڄ":2189,"مر":2190," با":2191," اح":2192," تح":2193," علي":2194,"جا":2195," اها":2196," پوءِ":2197,"لام":2198," ٿيو":2199,"ابت":2200,"فر":2201,"ءُ":2202,"تن":2203,"ـــ":2204,"ھان":2205," رهيو":2206," گهڻ":2207,"نڊ":2208," پرو":2209," اص":2210,"ده":2211," ڪار":2212," جون":2213," ڇڏ":2214," الله":2215,"امي":2216,"ائن":2217," گھ":2218,"حي":2219," منهنجي":2220,"امل":2221," فر":2222,"عو":2223," وئي":2224,"الو":2225,"ندگي":2226,"لف":2227,"تم":2228,"دڙ":2229," دنيا":2230," پن":2231,"وو":2232," ڪا":2233,"دن":2234,"صي":2235," جڏهن":2236," دور":2237," وٽ":2238,"19":2239," بس":2240,"ڪري":2241," ضرورت":2242," انت":2243,"مري":2244,"ٺو":2245," مد":2246," ويندو":2247," چي":2248,"كم":2249," ها":2250,"اهر":2251," ٿيڻ":2252," ڇو":2253,"با":2254,"00":2255," وڏي":2256," ماڻهو":2257," ويا":2258," هههههههههههههههه":2259,"لب":2260," يو":2261," علا":2262,"يني":2263,"عد":2264," سب":2265,"ھو":2266," پڻ":2267," پيدا":2268," سمج":2269," پيش":2270," سندس":2271," مخت":2272,"ائون":2273,"ستان":2274," ٻي":2275," انهي":2276," موجود":2277," اچي":2278,"on":2279,"201":2280,"ar":2281," اخ":2282," پار":2283," طرف":2284,"فا":2285,"يم":2286," آر":2287," چو":2288," مت":2289," ڪندو":2290," مار":2291," دل":2292," چون":2293,"ولي":2294," بابت":2295,"لن":2296," صرف":2297,"ٽو":2298,"عني":2299," چاهي":2300," وڏ":2301," تب":2302," اُ":2303,"an":2304," خاص":2305,"ندا":2306," طري":2307,"رن":2308," زندگي":2309,"به":2310," ام":2311,"\"\n":2312," ڏس":2313,"ندڙ":2314,"تاب":2315," لک":2316,"ڊي":2317," شامل":2318,"مبر":2319,"جر":2320," نا":2321," عمل":2322,"پور":2323," پڙ":2324," ماڻهن":2325,"قو":2326," ڪيئن":2327,"سل":2328," ڪڏهن":2329,"سين":2330," ههههههههه":2331,"اتي":2332,"بن":2333," ڪندا":2334," هئا":2335," s":2336,"ريون":2337," وارو":2338," سڀني":2339,"طي":2340," آهيان":2341," لو":2342," ڪه":2343,"ٽن":2344," گهٽ":2345,"خر":2346,"es":2347," مختلف":2348,"خو":2349,"هين":2350," بڻ":2351," رهيا":2352,"شت":2353,"الله":2354," طرح":2355,"۔۔":2356,"ڳو":2357," غير":2358,"است":2359," ڪمپ":2360," هوندي":2361," قسم":2362," ڳالهه":2363," تن":2364," نظر":2365,"ارا":2366," مدد":2367," ههههههه":2368," وان":2369,"سر":2370," ڏيڻ":2371," ڏانهن":2372," تون":2373," را":2374," گهرجي":2375," أ":2376," ني":2377," ڪندي":2378,"اااا":2379,"ضي":2380,"دم":2381," خي":2382," سائي":2383," مڪ":2384," ڪيتر":2385,"ڊيو":2386," هوندو":2387," خبر":2388," آهيون":2389,"وا":2390,"at":2391,"مد":2392,"ايد":2393," ڪندڙ":2394,"ترين":2395,"اريخ":2396," واق":2397,"ذا":2398,"اند":2399," ظ":2400," ههههههههههه":2401,"تون":2402," ٻئي":2403,"ڙا":2404," گذ":2405," فو":2406," اندر":2407," اج":2408," ٿيل":2409,"هون":2410,"زا":2411,"ٽا":2412," واپ":2413," ڪيا":2414,"بار":2415," عام":2416," قو":2417,"رس":2418," نق":2419," وچ":2420," ذري":2421," جيڪا":2422,"ڪس":2423,"en":2424,"هههههههههههههههه":2425,"شه":2426," نن":2427,"افي":2428,"زن":2429," ٻن":2430," جيڪڏهن":2431," جيئن":2432," سبب":2433,"شش":2434,"ريل":2435," بل":2436," مڪمل":2437," ڪتاب":2438,"10":2439," حال":2440,"زار":2441," فائ":2442," سيا":2443," رس":2444,"رت":2445,"او":2446," اچ":2447,"جيڪڏهن":2448," قي":2449," پري":2450,"or":2451," گر":2452," تاريخ":2453," ٻين":2454," ايس":2455," حقي":2456,"لاح":2457,"فظ":2458,"لى":2459," جه":2460,"لس":2461," ختم":2462," دا":2463," آھن":2464," شهر":2465,"al":2466," بنيا":2467," نالو":2468," /":2469,"عت":2470," اڪ":2471," سگهو":2472,"ضح":2473," جم":2474," جواب":2475," ٿيندو":2476," ھڪ":2477," تبدي":2478," !\n":2479," _":2480," آمري":2481,"ڪيٽ":2482,"حال":2483,"ڌي":2484," پس":2485," گهڻو":2486," نئين":2487," عورت":2488," بين":2489," ڇڏيو":2490,"توهان":2491," سالن":2492,"فو":2493,"تا":2494," ث":2495," سيڪ":2496,"ورو":2497," ملڪ":2498,"جھ":2499," A":2500,"خل":2501," تق":2502," پيو":2503," اد":2504," ياد":2505," ڏئي":2506," ٿئي":2507,"يان":2508," رهن":2509," ڪون":2510,"بس":2511,"شا":2512," بعد":2513,"روري":2514,"رب":2515," کيس":2516," وٺ":2517," مسئ":2518," پنهنجو":2519," بد":2520,"پوءِ":2521," S":2522,"انون":2523,"جه":2524,"عا":2525," ادا":2526," هل":2527,"گري":2528,"جب":2529,"ضو":2530," آن":2531," وڏو":2532," t":2533," بند":2534," وري":2535," ڏنو":2536," ڇڏي":2537," ايم":2538," خلا":2539," يق":2540," پيا":2541," ملي":2542,"انهي":2543," نٿ":2544," فون":2545," پاڪ":2546," هٿ":2547," اهم":2548," سگهن":2549," اڄ":2550,"يرا":2551," اڃ":2552," اسڪ":2553," آيو":2554,"ارف":2555,"لين":2556,"لوم":2557," ڦ":2558," ڏا":2559," مث":2560,"حت":2561," صورت":2562," ههههه":2563," خر":2564," ۾،":2565," وٺي":2566,"ڇا":2567," ٺاهي":2568," هجي":2569," ڀي":2570,"سا":2571,"وار":2572," هههههههههه":2573,"پورٽ":2574,"ڍي":2575," ويندي":2576," خط":2577," خيال":2578," پئي":2579,"يران":2580,"ندن":2581," اپ":2582,"ڊر":2583," شر":2584,"يڪس":2585," هيٺ":2586," ههههههههههههه":2587," وانگر":2588," اف":2589," آهيو":2590,"ur":2591," دوست":2592," پاس":2593," قيمت":2594," c":2595," دي":2596," ذريعي":2597," ملا":2598," الا":2599," جان":2600," ڪوشش":2601,"it":2602,"سوس":2603," سام":2604,"وري":2605," معي":2606,"جڏهن":2607,"حيح":2608," هم":2609,"جڻ":2610," عليه":2611," حق":2612,"هجي":2613," پهرين":2614," ٻه":2615," انسان":2616,"ليم":2617," قانون":2618,"زم":2619," يون":2620," آئي":2621,"حد":2622,"ro":2623,"مار":2624,"ھنجي":2625,"اها":2626,"ڪم":2627,"لق":2628," ڄاڻ":2629," ايپ":2630," آئون":2631,"ing":2632," بهترين":2633,"يون":2634," رکي":2635,"زو":2636,"اسين":2637,"كن":2638,"شان":2639,"ته":2640,"داري":2641," يعني":2642," ويب":2643,"le":2644,"هور":2645," تص":2646," انا":2647," d":2648,"=\"":2649," '":2650,"باد":2651," ڪارو":2652," صحيح":2653,"ورن":2654," ڪيل":2655," شو":2656," سوچ":2657," ڪمپني":2658,"ڊيا":2659,"ابل":2660," ؟":2661," سائيٽ":2662," اسٽ":2663," ڏسي":2664,"صر":2665," وس":2666," جاري":2667," غل":2668," خوش":2669,"تنهن":2670," فار":2671,"ياتي":2672," ڪل":2673," دوران":2674," بچ":2675,"ساني":2676," ڳو":2677," خدا":2678,"ڻو":2679,"اءِ":2680," ترقي":2681," معلوم":2682," مخ":2683," پڇ":2684," C":2685,"نه":2686," لفظ":2687,"دين":2688," مال":2689," مض":2690,"يي":2691," شايد":2692," ضروري":2693," بن":2694,"ic":2695,"پري":2696," ٻار":2697,"قا":2698," اثر":2699," پاڻي":2700," انتظ":2701," پوء":2702," اوھان":2703," ٻيو":2704," اهڙي":2705,"ليل":2706," رات":2707," هاڻي":2708," پون":2709," بو":2710,"ڪومت":2711," سوال":2712," اوهان":2713," منهن":2714," علائ":2715,"خص":2716," M":2717," حل":2718," بهتر":2719," منظ":2720," فيص":2721," سفر":2722," اک":2723," ٻاهر":2724,"ڙن":2725," خد":2726," اٿ":2727," مطلب":2728,"قل":2729," رنگ":2730," صاح":2731," مواد":2732," حصو":2733," اڃا":2734,"انا":2735," پا":2736," محسوس":2737," بح":2738,"انو":2739," ات":2740," ظاهر":2741," سنڌ":2742,"is":2743,"آآ":2744," عمر":2745,"گو":2746,"ترو":2747," هتي":2748," گو":2749," امي":2750," سين":2751,"صوير":2752," مٿ":2753," مطاب":2754,"ڄي":2755," عال":2756," هوندا":2757,"كل":2758,"غير":2759,"ضوع":2760," ڏني":2761," ٿيون":2762," صف":2763," مهي":2764," آسان":2765," جل":2766,"ed":2767,"لامي":2768," لڳي":2769,"صد":2770,"ِي":2771," صلاح":2772," ڪيترن":2773,"ياري":2774," نم":2775,"لان":2776," مارڪيٽ":2777," ڏسڻ":2778," پنهن":2779,"داد":2780," ڪام":2781,"رار":2782," توھان":2783,"ستي":2784," خري":2785,"كر":2786," طرفان":2787," خلاف":2788," ولا":2789,"<<":2790,"ڏھن":2791," هههههه":2792,"ههههههههه":2793,"مم":2794," وارا":2795,"يل":2796," منهنجو":2797," بيان":2798,"ميشه":2799," لائن":2800," ٿيندي":2801," ,":2802," على":2803," سگهجي":2804," فرا":2805,"اج":2806,"ههههههههههه":2807,"ڪاري":2808," حڪومت":2809,"شو":2810,"لائي":2811," الس":2812," رکڻ":2813,"ٽرو":2814,"گرام":2815," تنهن":2816," پهچ":2817," مست":2818,"هائي":2819," ٽر":2820," معيار":2821,"يات":2822," خدمت":2823,"ٽس":2824," فق":2825," ٽيڪ":2826," اندا":2827,"ازي":2828,"ائل":2829," تصوير":2830,"حا":2831,"ڳي":2832,"سندس":2833,"ايت":2834," گھر":2835,"ائم":2836,"ديد":2837," حو":2838,"ٽري":2839,"15":2840,"اء":2841," جتي":2842," ڏيک":2843," روز":2844," صاحب":2845," پئ":2846," ائين":2847," مٿي":2848," حقيقت":2849," بال":2850,"پن":2851," اختي":2852,"ٽل":2853," جنگ":2854,"اڪاڻ":2855," عر":2856,"ڌو":2857," والله":2858,"18":2859,"باني":2860," جسم":2861,"انس":2862," هههههههههههههه":2863," ۾.\n":2864,"200":2865,"ئڻ":2866," اصل":2867," تيار":2868," تجر":2869,"انه":2870," ههههههههههههههه":2871," گرا":2872," ڏک":2873," الم":2874," آخر":2875," آف":2876," تج":2877,"هار":2878," شخص":2879," دف":2880,"تل":2881," واپس":2882," قب":2883," سک":2884,"re":2885," مم":2886,"ليس":2887," چار":2888," ڪجھ":2889," رڳو":2890," ڏيو":2891,"ائو":2892,"ڪرو":2893," تبديل":2894," دست":2895,"رر":2896," P":2897," سندن":2898," شع":2899," پهريون":2900," تان":2901," قابل":2902,"خري":2903,"كت":2904," وال":2905," پسند":2906," اول":2907," راند":2908," زمين":2909," ڊيٽا":2910," اجاز":2911,"يس":2912," پيار":2913," p":2914," چين":2915,"اسب":2916,"عن":2917," T":2918,"گل":2919,"قن":2920," نظام":2921," >":2922," خود":2923," اتي":2924,"اقت":2925,"am":2926,"ريا":2927," منت":2928,"ريڪ":2929," حلو":2930,"ذه":2931," موق":2932,"دس":2933," مشهور":2934," ايران":2935,"ظيم":2936," اجازت":2937,"واز":2938," مج":2939,"as":2940,"ههههههه":2941,"اھ":2942,"ac":2943,"لت":2944," چوڻ":2945,"ڻيڪ":2946," تف":2947,"بان":2948," آمريڪا":2949," پاڪستان":2950,"توڻيڪ":2951," اسٽي":2952," قدر":2953," باري":2954,"ڪيشن":2955," ڪلا":2956,"قيق":2957," هميشه":2958," نٿو":2959," پيداوار":2960,"سڀ":2961,"چو":2962," سڏ":2963," اسپ":2964,"فوظ":2965,"دان":2966,"جنهن":2967," ڏٺو":2968," ھو":2969," داخل":2970," B":2971," هُ":2972," عو":2973,"وه":2974,"يعني":2975," اسين":2976," صن":2977,"هههههههههه":2978,"us":2979," وڃڻ":2980,"art":2981," آز":2982,"ميت":2983,"تري":2984,"كي":2985,"ــــــــــــ":2986," وارن":2987," عن":2988," برا":2989,"يور":2990," شين":2991," اعلي":2992,"ضحك":2993," بلا":2994," قائم":2995," ار":2996," مص":2997," سٺو":2998,"om":2999,"بح":3000," ؟\n":3001," ڪونه":3002,"ياب":3003," ڏن":3004," نتي":3005," محفوظ":3006,"et":3007,"12":3008," ڪيترائي":3009,"ڙهي":3010,"ماني":3011," صارف":3012,").\n":3013," طاقت":3014,"اريو":3015,"ابط":3016,"هري":3017," st":3018,"سپ":3019,"وني":3020," موڪل":3021,"سٽم":3022," تقري":3023," خوب":3024," سرو":3025,"منهنجي":3026," اب":3027,"ion":3028," لائ":3029," چونڊ":3030," سمجهي":3031,"30":3032," ڳول":3033," سگھ":3034," ويندا":3035,"وٽ":3036," هجڻ":3037," پروگرام":3038," آواز":3039," كل":3040,"مح":3041,"ملي":3042," بنيادي":3043," کڻي":3044,"مس":3045," کا":3046," ننڍ":3047,"صل":3048," شاع":3049," بار":3050," نف":3051,"ڻڻ":3052," مطابق":3053," واقعي":3054," معلومات":3055,"ڇو":3056," تنهنجي":3057,"ارين":3058,"يڪل":3059," ٻنهي":3060," فراهم":3061," ڇاڪاڻ":3062," کانپوءِ":3063,"نت":3064,"ريو":3065," b":3066," شيء":3067," مسل":3068,"ليٽ":3069," سگھي":3070," ڊو":3071," I":3072," هنن":3073," سيڪڙو":3074," صح":3075,"خي":3076," مري":3077," چڪو":3078,"ريان":3079,"ههههههههههههه":3080,"رات":3081,"دگي":3082," ڀر":3083," سخت":3084," خراب":3085," هيو":3086,"آن":3087,"ٽنگ":3088," مقصد":3089," حد":3090,"ساس":3091,"گار":3092," پير":3093," سط":3094," خريد":3095," لکي":3096,"اڄ":3097,"ڳا":3098," بخ":3099," آهين":3100," اسلامي":3101," ڊگ":3102," وار":3103," منصو":3104,"ex":3105," اش":3106,"رم":3107," سڃ":3108," الي":3109," نالي":3110,"اجي":3111,"قول":3112," جڳ":3113," اھو":3114,"id":3115,"خواست":3116,"el":3117," تعليم":3118," هذا":3119," ٿيا":3120,"ره":3121,"؛\n":3122," غلط":3123,"عام":3124," نمون":3125,"ياد":3126,"il":3127,"عه":3128,"ورا":3129,"خخ":3130,"تح":3131," شادي":3132,"ليڪيشن":3133," گرو":3134,"يائين":3135," موضوع":3136," تا":3137," آزاد":3138," وز":3139,"ائش":3140," ڄڻ":3141," اسڪول":3142," ھن":3143," طريقي":3144," فيصلو":3145,"۔\n":3146,"جوان":3147,"ڪان":3148,"202":3149," تحقيق":3150," آفي":3151," پنھنجي":3152,"11":3153," نئون":3154," انداز":3155," اختيار":3156," مين":3157," يور":3158," ڳاله":3159," ٻيهر":3160,"ترا":3161," مُ":3162,"ءٌ":3163," پاران":3164,"اڪٽر":3165," توکي":3166,"زر":3167," نقص":3168," آيا":3169," ٺا":3170," چه":3171," ٻڌايو":3172," ههههههههههههههههه":3173,"ڏو":3174,"ow":3175," ڪير":3176," بنياد":3177," ورتو":3178," ڪمي":3179,"رفت":3180," کول":3181," ڪور":3182,".\"\n":3183," مهر":3184,"دارن":3185,"يندا":3186," نام":3187," يقين":3188," m":3189,"مه":3190," محبت":3191,"ورڊ":3192," ڪپ":3193," نيو":3194,"لاجي":3195," اچڻ":3196,"علي":3197," ايڪس":3198," ٻولي":3199,"100":3200," ملڪن":3201," رد":3202," حي":3203," رست":3204," سطح":3205,"ڊل":3206,"اسي":3207,"50":3208,"چر":3209," جدا":3210," مناسب":3211,"خلي":3212," نس":3213," روح":3214," نقصان":3215,"هيل":3216," ذهن":3217," وسي":3218," ڪهڙي":3219," که":3220," جهڙو":3221,"پيل":3222,"ڪت":3223," اڪثر":3224,"فار":3225," انساني":3226," ٻارن":3227," مفت":3228," رج":3229," مونکي":3230," فقط":3231," سچ":3232,"فتي":3233," شيون":3234," سياسي":3235," پٽ":3236,"؟\"\n":3237,"شر":3238," ڪافي":3239," آخري":3240," چاهيو":3241," درخواست":3242,"صورت":3243," دلچ":3244,"ٻي":3245,"په":3246," قر":3247,"؟؟":3248," چڱ":3249," اڪائون":3250,"14":3251,"شل":3252,"گه":3253," مرڪ":3254,"فته":3255," معا":3256,"عال":3257,"ائيل":3258,"نالاجي":3259," الح":3260,"تيب":3261," مقاب":3262," D":3263," G":3264," ضرور":3265,"oo":3266,"ad":3267," اض":3268," سڄي":3269," ساڳ":3270,"شم":3271,"ٽرني":3272," ڊر":3273," اميد":3274," مثال":3275,"اين":3276," حس":3277,"اندي":3278," ممڪن":3279,"ec":3280," وڊيو":3281,"ههههههههههههههه":3282," ڪاروبار":3283,"هاڻي":3284," رق":3285," ھي":3286," ميڊيا":3287," اڳو":3288," خان":3289," ميل":3290," شاگر":3291," بڻجي":3292," شروعات":3293," سائن":3294,"هههههههههههههه":3295,"اط":3296,"زادي":3297,"ay":3298,"الر":3299,"مث":3300," ڪيون":3301," عالمي":3302,"ريف":3303," نوجوان":3304,"يندو":3305,"ئو":3306," اڻ":3307," واحد":3308," تعلق":3309," ترتيب":3310,"فاظ":3311," السلام":3312,"الت":3313,"لات":3314,"اتو":3315," گهڻي":3316," فارم":3317," اعلان":3318,"ڪٽ":3319," نمبر":3320," ڪٿي":3321," فل":3322," f":3323," ٽيڪنالاجي":3324,"پس":3325,"ايل":3326,"ھر":3327," سُ":3328," فن":3329," ڪان":3330,"صوص":3331,"آئون":3332," ويج":3333,"13":3334," سسٽم":3335," انج":3336," هنڌ":3337," پنج":3338," حالت":3339," w":3340," ڏنل":3341,"ههههه":3342,"ميو":3343,"گا":3344,"هههههه":3345,"لاس":3346," ڀا":3347," کن":3348,"اڻو":3349," عد":3350,"حول":3351,"هتي":3352," شك":3353," وڃن":3354," حض":3355,"ريب":3356,"بد":3357," لوڊ":3358,"احت":3359,"ستائين":3360," ذاتي":3361," H":3362,"هاي":3363,"رد":3364," تعم":3365," ايندڙ":3366," مضمون":3367," ڪجي":3368,"يابي":3369," تڪ":3370," صحت":3371," طريقو":3372," ڳوٺ":3373,"16":3374," ڏسو":3375," انهيءَ":3376,"ظم":3377,"ٻئي":3378," مسئلو":3379,"he":3380,"مع":3381," مز":3382," مطال":3383," هوءَ":3384," ڳن":3385," سنگ":3386,"nd":3387,"ٽرول":3388,"هوري":3389,"ائيندو":3390," ٺاهڻ":3391," اصلي":3392," چا":3393," کين":3394," ڏيکاري":3395," انگ":3396," لڳو":3397,"ou":3398," انگري":3399," اون":3400,"\">":3401," ڪردار":3402," L":3403," پڪ":3404,"ذي":3405," وڻ":3406," چئي":3407," رھ":3408," حڪم":3409,"ابر":3410,"هڪن":3411," ٽو":3412," N":3413," سٺي":3414," قدم":3415," آه":3416,"ريءَ":3417," مشين":3418," ڊائون":3419," حقيقي":3420,"ديم":3421," پورو":3422,"لز":3423," وائ":3424," شڪ":3425,"ol":3426," دير":3427," رهڻ":3428," وج":3429," رفت":3430,"جيئن":3431," احساس":3432," لاڳا":3433,"ائيڊ":3434," پوندو":3435,"تان":3436," مذه":3437,"ادي":3438,"ڪڻ":3439,"ـــــ":3440,"بوط":3441," ايپليڪيشن":3442,"وز":3443," start":3444," حصي":3445,"ڏيل":3446," سروس":3447,"هيون":3448," ڏاڍ":3449,"ٽين":3450," وض":3451," تعمير":3452," حفاظ":3453,"17":3454," سامان":3455,"زمي":3456,"ديق":3457," ڀيرو":3458,"شڪ":3459," هاي":3460," حڪ":3461,"ag":3462," پيغ":3463," اڪائونٽ":3464,"ھين":3465," نٿا":3466," dur":3467,"ارڻ":3468," حم":3469," ماحول":3470," متا":3471," حوالي":3472,"پنهنجي":3473," ڪيس":3474," موجب":3475," صلاحيت":3476," طب":3477," صدر":3478,"ot":3479," پل":3480," پارٽي":3481,"جان":3482,"مپ":3483," اڪي":3484," انٽرني":3485,"شنل":3486," علاج":3487," قوم":3488," خوبصورت":3489," وڌي":3490," وٺڻ":3491,"زائن":3492," مرح":3493,"هل":3494,"يورس":3495," لکڻ":3496," ايئر":3497,"شيا":3498," انھن":3499,"عل":3500," تبديلي":3501," موت":3502,"اُ":3503,"حان":3504," آپري":3505," نفس":3506,"ائيو":3507," پاسي":3508," سائين":3509," حص":3510," صو":3511," سلس":3512," هيون":3513,"ڙين":3514," عي":3515," ڏيندو":3516," سون":3517," ڪهاڻي":3518,"يورسٽي":3519," ميمبر":3520," نش":3521," ايل":3522," گراهڪن":3523," [":3524," اط":3525," پوري":3526,"ٽڻ":3527,">>":3528," ماءُ":3529," موب":3530," ڌر":3531,"ارت":3532," روش":3533," جذ":3534," قبول":3535," ابو":3536,"ٺيان":3537," تيز":3538," پڙهي":3539,"نس":3540,"ter":3541,"اڳ":3542,"شق":3543,"لون":3544,"اهڙي":3545,"پٽ":3546," مقرر":3547,"نين":3548,"ٺا":3549,"وووو":3550,"لڊ":3551,"25":3552," خاند":3553," آمريڪي":3554," تش":3555," پور":3556," عورتن":3557,"اض":3558,"ماري":3559," رياست":3560," تعداد":3561," سماجي":3562," مٿان":3563," بلڪل":3564," ۾\n":3565," جديد":3566," سرگر":3567," مهيا":3568," خرچ":3569,"تك":3570," اڳتي":3571," ٽن":3572," R":3573,"قبل":3574," لازمي":3575," عملي":3576," اکين":3577," \"\n":3578," F":3579," هههههههههههههههههه":3580," تفصي":3581," ڪريان":3582," تس":3583," صاف":3584," ههههههههههههههههههه":3585,"طن":3586," مساف":3587,"هنن":3588,"ريم":3589,"يه":3590,"پا":3591," ڪنٽرول":3592," ڊاڪٽر":3593,"لع":3594," مهرباني":3595," علم":3596," ڌيان":3597," انتظار":3598,"فه":3599," پهچي":3600," اُن":3601," متاثر":3602," معني":3603," حر":3604," پڙهڻ":3605," يونيورسٽي":3606," سگهون":3607," رکيو":3608," ِ":3609," ڍ":3610," مرد":3611,"وڌ":3612," اخت":3613," ڪوبه":3614,"ڪجهه":3615," عوام":3616," گھٽ":3617," جها":3618," آزادي":3619,"ليت":3620,"ext":3621,"طان":3622," مضبوط":3623,"ڪنهن":3624," رپورٽ":3625," نموني":3626," رقم":3627,"دود":3628," يار":3629," سواءِ":3630," رابط":3631," قومي":3632,"ڪڏھن":3633," ذميو":3634," نڪ":3635," عظيم":3636," جلد":3637," E":3638," تہ":3639,"مينٽ":3640," باقي":3641," پوسٽ":3642,"افت":3643," آفيس":3644," باب":3645,"ثيت":3646,"جيتوڻيڪ":3647,"امو":3648," راندي":3649," مليو":3650," عند":3651,"جون":3652," ده":3653," ٻيا":3654," ڪرڻو":3655,"ڪشن":3656," هلا":3657," شرح":3658," ڪئ":3659," k":3660,"سٽري":3661,"انڊ":3662,"قات":3663,"ڀر":3664," ذڪر":3665,"ڪردگي":3666," علاوه":3667," پنهنجن":3668," شيءِ":3669," صنعت":3670,"وال":3671," ڪريون":3672,"ايع":3673," خوشي":3674," شان":3675,"يوٽر":3676," اوزار":3677," to":3678," بينڪ":3679,"ختي":3680," خاصيت":3681,"افٽ":3682,"ent":3683,"فن":3684," W":3685,"دايت":3686," ايف":3687," واڌ":3688,"os":3689," ڪين":3690," ڪاري":3691," لن":3692," ٽيم":3693,"تال":3694,"زين":3695,"بال":3696,"زل":3697,"صور":3698,"ههههههههههههههههه":3699," هلي":3700," ھڪڙو":3701," واضح":3702," حيثيت":3703," حفاظت":3704,"]\n":3705," انسٽ":3706," معام":3707," گفت":3708," خواب":3709,"24":3710," تاز":3711," وق":3712," گا":3713," آباد":3714,"روي":3715," آرام":3716,"ارڊ":3717," ڪارڪردگي":3718," سپ":3719," يورپ":3720," مڙ":3721," وڪرو":3722," گڏيل":3723," ٺهيل":3724," ره":3725," موجوده":3726," علائقي":3727," ڪهڙو":3728," هزار":3729," باد":3730," اهڙو":3731," ايه":3732,"ميل":3733," زندگيءَ":3734," تصديق":3735,"آخر":3736," نيٽ":3737," روشني":3738," گي":3739,"ers":3740,"ائيندي":3741,"ab":3742,"بين":3743,"مط":3744,"ِن":3745," بع":3746," ديو":3747,"َن":3748,"ch":3749,"ندر":3750,"دت":3751," فرق":3752," پوليس":3753," سنڀ":3754," اسلام":3755,"ڪيل":3756,"باري":3757," ٿيندا":3758," هفتي":3759,"داشت":3760," رسائي":3761,"?\n":3762," ماس":3763," ڪارڊ":3764,"ــــــــــــــــ":3765," احت":3766," تجربو":3767," وف":3768,"باب":3769," ڪلڪ":3770," رستو":3771,"ٽيو":3772," زال":3773," ايندو":3774," سج":3775," پهريان":3776,"im":3777,"هندي":3778," بت":3779,"اله":3780,"ig":3781,"يرت":3782,"اااااااا":3783,"بري":3784," ست":3785," نشان":3786,"هايو":3787," رفتار":3788," جمهوري":3789,"لاب":3790,"ولين":3791," لاڳو":3792," جلدي":3793," پڇيو":3794,"ڪه":3795," تڏهن":3796," آءٌ":3797," إ":3798,"انگ":3799," فلم":3800,"لينڊ":3801,"کان":3802,"آر":3803," جھ":3804," جاءِ":3805," پھ":3806," چم":3807," يع":3808," زي":3809,"ڪارڊ":3810,"وڌيڪ":3811,"ائر":3812,"هوءَ":3813,"سنڌ":3814," ملڪي":3815," جائ":3816," حضرت":3817," رح":3818,"جد":3819," آرٽ":3820," ڪونهي":3821," هههههههههههههههههههه":3822," سيٽ":3823," وجود":3824," ڪئين":3825," وزير":3826," پُ":3827," غلطي":3828,"سٽر":3829," مالي":3830," لك":3831,"ولو":3832,"سنگ":3833," ڊالر":3834,"ائيندا":3835,"مثال":3836," in":3837,"بلي":3838," مڃ":3839,"مائي":3840,"چين":3841," خاندان":3842," مف":3843,"باس":3844," ويئي":3845," سرڪاري":3846," پيغام":3847,"نظ":3848,"غان":3849,"سڪ":3850,"ڊا":3851," O":3852," مهم":3853,"اوي":3854,"َر":3855," جنھن":3856,"ماڻ":3857," ڳالهيون":3858," ترج":3859,"and":3860," گوگل":3861,"يام":3862," آگ":3863," ڏاڍو":3864,"حه":3865,"ريز":3866," ايڪ":3867," قتل":3868," بڻائي":3869," دفعو":3870,"ـي":3871," سگهيو":3872," شاء":3873,"000":3874," صبح":3875," ٿيندڙ":3876," پليٽ":3877," ويون":3878," انق":3879,"جيب":3880," شه":3881," موسم":3882,"شك":3883,"ــــــ":3884," گرفت":3885,"نٽ":3886," نمي":3887," ماڊل":3888," مسلمان":3889,"ئل":3890," رهندو":3891," حت":3892,"ابو":3893," ڪيم":3894,"ادر":3895,"ونا":3896,"اڻن":3897,"ايان":3898," نوڪري":3899,"199":3900," ڪندڙن":3901,"قوامي":3902,"جم":3903," انڊ":3904," خير":3905," سگھو":3906," ضح":3907," لکيو":3908," ڪال":3909," جمع":3910," اھ":3911,"وجود":3912," ميز":3913," يقيني":3914,"منهنجو":3915,"پاڻ":3916," ميو":3917," ڪڍ":3918,"ليف":3919," گم":3920," ٻڌي":3921," بحث":3922,"شايد":3923,"كون":3924," هين":3925," ڪمپيوٽر":3926," سگهان":3927," تصور":3928," وضاحت":3929,"ub":3930," پال":3931," لان":3932," ھڪڙي":3933,"لاق":3934," اڳيان":3935,"دل":3936,"ُو":3937," الاقوامي":3938," امت":3939,"الف":3940," ٻو":3941,"قع":3942," پرا":3943,"تب":3944,"قرار":3945," فط":3946,"40":3947,"صف":3948," ون":3949," محمد":3950," اسڪرين":3951," ـ":3952," شڪل":3953," له":3954," معاه":3955," ڪامياب":3956," ادب":3957," سڃاڻ":3958," =":3959," جوڙ":3960," ڪرا":3961,"ايون":3962," ثابت":3963," انتظام":3964," <<":3965,"iv":3966," کانسو":3967," استاد":3968," اني":3969," ايو":3970," اقت":3971,"نن":3972," اصول":3973,"کو":3974," آءِ":3975," الع":3976," ريت":3977," ڪاميابي":3978," مستقبل":3979," برابر":3980," گذريل":3981,"غيره":3982,"ڇي":3983," زور":3984,"؟\"":3985," صورتحال":3986," ماهر":3987," ڳولي":3988,"ينا":3989," سنڌي":3990,"انھن":3991," عرصي":3992," هوس":3993,"ation":3994," جيتوڻيڪ":3995,"يره":3996," l":3997,"ئس":3998,"ڙيل":3999,"now":4000," چڪا":4001," گرمي":4002,"حقي":4003,"پار":4004,"22":4005,"گرا":4006,"ريت":4007," *":4008,"حن":4009," سل":4010," پاب":4011," انتي":4012," عل":4013," قانوني":4014," ڊگهي":4015," پوي":4016," حالتن":4017," يه":4018,"بهر":4019,"رڪ":4020,"پاڪ":4021," اَ":4022,"زيشن":4023," متع":4024," وش":4025," واس":4026," چئ":4027," چونڊيو":4028," ونڊ":4029," هند":4030," مقابلي":4031," ناڪ":4032,"چه":4033," ليک":4034," سهو":4035,"ايه":4036," ايندي":4037," ڪوڊ":4038," خواه":4039," مجمو":4040,"ااا":4041,"هيه":4042," ورڪ":4043,"هههههههههههههههههه":4044," گرم":4045," ايترو":4046,"كس":4047," $":4048,"ul":4049,"تع":4050," اظ":4051," نسل":4052,"جلي":4053," نڪري":4054," گذاري":4055," سائنس":4056,"كك":4057," هدايت":4058,"ائيس":4059," پيءُ":4060,"کيون":4061," انگريزي":4062," مائ":4063," زين":4064,"جيڪو":4065," صدي":4066," ٿورو":4067,"ـــــــ":4068," ماني":4069," کولڻ":4070,"ران":4071," بورڊ":4072," ايمان":4073," مات":4074," شڪار":4075," انٽرنيٽ":4076," >\n":4077," گروپ":4078," سافٽ":4079," نٿي":4080,"هرست":4081," سڄ":4082," قل":4083," وزن":4084,"يندي":4085," ڳولا":4086,"ap":4087,"يڪي":4088," ٽرين":4089,"ٽائي":4090," کو":4091," بنا":4092,"ٿر":4093,"اما":4094,"ڊو":4095," جڳهه":4096,"ir":4097," ترين":4098," موبائل":4099,"ڙيون":4100,"ماغ":4101," مخصوص":4102,"دنيا":4103,"آمري":4104,"عظم":4105,"فق":4106,"وند":4107," زند":4108,"ابه":4109,"em":4110,"بهرحال":4111," دٻ":4112," ڪنداسين":4113,"زيو":4114," اڏ":4115," عرب":4116," باوجود":4117," دوستن":4118," ويجهو":4119," h":4120," رب":4121," منتقل":4122," اڌ":4123," وڌائڻ":4124,"۔۔۔\n":4125," لفظن":4126,"ونه":4127,"كه":4128," لائين":4129,"بيت":4130,"گز":4131," زخ":4132," فائدو":4133," علائقن":4134," سگھن":4135," ڳالھ":4136,"طو":4137,"عات":4138," هال":4139," الن":4140," ملڻ":4141," ملين":4142,"ئا":4143,"ورس":4144,"رل":4145," چڪي":4146," ميدان":4147," چوي":4148," حسين":4149," مهين":4150,"نڊن":4151," گري":4152,"ابي":4153,"يراني":4154," موڪ":4155," چاهيندا":4156," نڪر":4157," طبي":4158," اللي":4159," بيماري":4160," سوچيو":4161," ماري":4162,"دري":4163," جهڙوڪ":4164," <":4165,"اع":4166," ثق":4167," لاڳاپيل":4168,"انائي":4169,"انيه":4170,"سون":4171," ابت":4172," آڪ":4173," مارڪيٽنگ":4174," سنڀال":4175," فهرست":4176,"سپي":4177,"چار":4178," تخلي":4179," سياست":4180," شاگردن":4181," زبان":4182," know":4183," ول":4184," چر":4185,"پهرين":4186," خار":4187," زمان":4188," پيام":4189,"ئه":4190,"ههههههههههههههههههه":4191," ٻڌائي":4192," مهينن":4193,"ھنجو":4194," ڏاڍي":4195," هفت":4196,"انهيءَ":4197," اِ":4198," اق":4199," زماني":4200," بخش":4201," ملاقات":4202," ويئر":4203,"ئتي":4204,"ڪرا":4205," ڪلاڪ":4206,"روز":4207," کانسواءِ":4208," هاڻ":4209," قط":4210," رکو":4211,"حاظ":4212," آب":4213," هئڻ":4214," شاندار":4215,"ڏانهن":4216," تفصيل":4217," درست":4218," فلس":4219," سمجھ":4220,"ُن":4221," جر":4222,"الن":4223," حياتي":4224,"خلا":4225,"سب":4226," دعا":4227," گل":4228," هڪڙي":4229,"ڪيو":4230,"ess":4231," لکيل":4232," پلي":4233,"شتي":4234,"لوي":4235," انتهائي":4236,"پل":4237,"।\n":4238," آئين":4239,"th":4240," وڃو":4241," پريشان":4242," ڪاروباري":4243," پنهنجا":4244," ڌار":4245,"گذ":4246," دع":4247," X":4248," گذري":4249," حساب":4250," سفار":4251," ڪيائين":4252," ।\n":4253,"ڪٽر":4254," موقعو":4255,"un":4256," دماغ":4257,"آه":4258," شوي":4259,"60":4260,"اھو":4261,"هندو":4262," ڏيندا":4263,"اضي":4264,"رز":4265,"موضوع":4266," ٺاهيو":4267," قد":4268," وغيره":4269," غور":4270,"ٺل":4271," هڪڙو":4272," برقرار":4273," o":4274,"ٿا":4275," آمد":4276," بڻائڻ":4277," دلچسپي":4278," اهميت":4279," سميت":4280," سوشل":4281," منظر":4282,"ارتي":4283," بلاگ":4284," ههه":4285,"بير":4286," چند":4287,"سنس":4288," مالڪ":4289," آڻڻ":4290,"شاهه":4291," لحاظ":4292," سمنڊ":4293," چيزي":4294,"ثي":4295,"ڙڻ":4296," سامهون":4297," بدر":4298," رڪارڊ":4299," جهاز":4300,"برا":4301,"تماد":4302," سمجهيو":4303," آڻ":4304,"ڙپ":4305," U":4306,"ـآ":4307," ڇوڪري":4308,"اق":4309," نور":4310,"text":4311,"um":4312," ،\n":4313," قسمن":4314," ڳالهائڻ":4315," ڌرتي":4316,"سمان":4317," چاهيان":4318," مسئلن":4319," اھي":4320," راز":4321,"مش":4322," ميٽر":4323," اسپتال":4324," ٽرانس":4325,"سه":4326," باز":4327,"يائي":4328," دلچسپ":4329," واپار":4330," تعلي":4331," اعتماد":4332,"ادا":4333," آساني":4334," توانائي":4335," درد":4336,"all":4337,"چا":4338,"گن":4339," پين":4340," عز":4341," درو":4342," وڏا":4343," اشت":4344,"ريٽ":4345,"ــي":4346," ساڻ":4347," جيستائين":4348," شام":4349," شايع":4350,"۔۔۔۔":4351," آپريشن":4352,"ڻن":4353," منهنجا":4354,"دد":4355," راندين":4356,"خاص":4357,"يب":4358,"ٿين":4359,"انت":4360," اکيون":4361," الز":4362," الڳ":4363," ڪراچي":4364,"الا":4365," محدود":4366," g":4367,"عودي":4368,"ليو":4369,"يز":4370," امام":4371,"21":4372,"ونس":4373," لين":4374," قرار":4375,"ئنڪ":4376," مختصر":4377," چڱي":4378,"مق":4379," ايڊ":4380," ڏينھن":4381," شاعر":4382,"حقيقت":4383,"کر":4384," ننڊ":4385," تحفظ":4386," نيا":4387," ڪندس":4388,"مولي":4389," رستي":4390," اعليٰ":4391,"مطلب":4392," حتى":4393," مير":4394,"اره":4395," ڏو":4396," افغان":4397," اك":4398," جيان":4399," هيءَ":4400," پوندي":4401," تنهنجو":4402," بھ":4403,"مير":4404," سواء":4405," ڳولڻ":4406," اث":4407," اضافي":4408,"23":4409," هجن":4410," نص":4411," رت":4412," موسي":4413,"يراعظم":4414," ڀلي":4415," اهڙا":4416," وائرس":4417,"جل":4418," اٽ":4419,"ڙيءَ":4420," ادارن":4421," حيرت":4422," قس":4423," جام":4424,"يندڙ":4425," منٽ":4426," رابطو":4427," بغير":4428," فوج":4429,"ndro":4430,"سال":4431," مقدار":4432," مقامي":4433,"اڻڻ":4434,"ind":4435," قرض":4436,"وره":4437," ورتي":4438," اچن":4439,"سس":4440," قبل":4441," صارفين":4442," پک":4443,"اءُ":4444," انسٽال":4445," K":4446,"پرو":4447,"ڊن":4448,"ڏا":4449,"بادي":4450," سڏيو":4451,"هههههههههههههههههههه":4452," گھرجي":4453,"دائي":4454," الف":4455," حڪمت":4456,"چون":4457," وص":4458," وفا":4459,"پوء":4460," عدالت":4461,"26":4462,"ut":4463," مه":4464," بندي":4465,"پشن":4466," بيو":4467,"ابطي":4468," ڊائ":4469,"ndroid":4470," نہ":4471," غريب":4472," ڌي":4473,"جيٽل":4474,"يڪشن":4475," سلام":4476,"ٽيءَ":4477," هيچ":4478," تحت":4479," تقريبن":4480,"وم":4481," ڪُ":4482,"هيهي":4483," شهري":4484," دين":4485," خالي":4486," شكرا":4487," مسلسل":4488," سلسلي":4489," مهيني":4490," مزاح":4491," ولي":4492," تصويرون":4493," اظهار":4494," ڪڍي":4495," دعو":4496," فعال":4497,"ازن":4498," فٽ":4499," مشت":4500," حصن":4501,"ميم":4502,"ٽوبر":4503," پائي":4504," انص":4505,"امن":4506," ٽيسٽ":4507," تنظيم":4508," آفري":4509,"امه":4510,"st":4511,"ڪش":4512,"گڏ":4513," بجلي":4514," جاچ":4515," ڊوائيس":4516," ننڍي":4517," ايڇ":4518,"پڻ":4519,"هيءَ":4520,"نديون":4521," امتحان":4522," n":4523," ؛":4524,"حو":4525," پالي":4526," دري":4527," سڌو":4528,"لاد":4529," عيس":4530," ڪرائي":4531,"پاڪستان":4532,"if":4533," ايراني":4534," مرا":4535," اعت":4536," re":4537," سار":4538," ايجن":4539," ڏيندي":4540," سماج":4541," امير":4542," شخصيت":4543,"گهڻ":4544," مصنو":4545," جيڪڏھن":4546," خال":4547," ساڳيو":4548,"حب":4549,"ظر":4550,"ظي":4551," آس":4552," بيڪ":4553,"ايم":4554," واٽ":4555," گڏجي":4556," نمائ":4557," ذات":4558," فيس":4559,"oc":4560,"ڪين":4561,"هيو":4562," ڪنھن":4563," يوم":4564," متح":4565," طريقا":4566," شرط":4567," مطابقت":4568," لائسنس":4569," بدران":4570,"صرف":4571,"فڪ":4572,"قى":4573," ناز":4574," قديم":4575," سڀئي":4576," ايندا":4577," نظري":4578," منظم":4579,"وت":4580," سوچي":4581,"گيري":4582,"ڊيٽ":4583," شوق":4584," جسماني":4585," امن":4586," جنم":4587," انف":4588," مذهبي":4589," اشارو":4590," ^":4591,"شمن":4592,"طف":4593," عمار":4594," ماڻھو":4595,"پٽمبر":4596,"pt":4597," ارا":4598," يک":4599," ذميواري":4600," #":4601,"ak":4602," سهڻ":4603,"سته":4604," دوا":4605,"198":4606," دستياب":4607,"قه":4608,"ستاني":4609,"27":4610,"تريون":4611," جنسي":4612," عالم":4613," جنو":4614,"کيه":4615," سگهندا":4616," تجزيو":4617," اسٽيشن":4618,"اون":4619," معمولي":4620,"افو":4621," لل":4622,"ـــــــــ":4623," عاد":4624," مڙس":4625," مغ":4626," ھئي":4627," كي":4628," مشڪل":4629," گرفتار":4630," يم":4631," منج":4632," مسافر":4633,"28":4634," کائڻ":4635," هوا":4636," براي":4637,"پان":4638," الو":4639," عجيب":4640," ٺيڪ":4641," مسئلي":4642," ڪورٽ":4643," جڏھن":4644," ڪلو":4645," سري":4646," اسٽو":4647," فڪر":4648," گهربل":4649," عليها":4650,"ڻا":4651," هز":4652," دڪان":4653," گهڻا":4654,"ov":4655,"قر":4656,"ٿو":4657,"جاج":4658," قدرتي":4659,"سائين":4660," ڊيو":4661," طريقن":4662," اڃان":4663,"ڊنگ":4664," بئنڪ":4665,"لاءِ":4666,"سيم":4667," پروسي":4668,"197":4669," مرڪز":4670,"هندڙ":4671," اسٽور":4672," خامو":4673,"روف":4674,"بعد":4675,"اوهان":4676,"کا":4677," جهڙي":4678," پلا":4679,"نيئر":4680," ڪيترو":4681," ڏکڻ":4682," سور":4683," بحال":4684," ڪرائڻ":4685," اسيم":4686," لباس":4687," سيريز":4688,"ـــي":4689,"انن":4690,"ارٽ":4691," اجلاس":4692," جائزو":4693," ڪيترا":4694,"ڪون":4695," مظ":4696,"هيد":4697," وات":4698,"عمل":4699,"ائب":4700,"جڪ":4701,"دائين":4702," کليل":4703," ملاز":4704," دستاوي":4705," مشتمل":4706,"جين":4707," هيا":4708,"گاه":4709," وح":4710," کار":4711," موٽي":4712," ڳا":4713,"توھان":4714,"مونکي":4715," سيڙپ":4716," v":4717," مب":4718," سزا":4719," شاگرد":4720," ڪمپنين":4721," عنصر":4722," گڏو":4723," ٻڌڻ":4724," ارب":4725,"هيم":4726," ايتري":4727," دورو":4728," ڪتابن":4729,"آمد":4730," نگر":4731," پراڻي":4732," نتيجي":4733," اڪيلو":4734," ويڪ":4735,"ائيندڙ":4736," معياري":4737," ڪمري":4738," روشن":4739," مارچ":4740," V":4741," ڀيرا":4742," قومن":4743,"80":4744,"بول":4745," سائ":4746," خوف":4747," رکندڙ":4748,"  ":4749," مئي":4750," ڪالي":4751," کل":4752," صد":4753," ساڳي":4754," سينٽر":4755," ,,":4756," بابا":4757,"عر":4758,"ھڪ":4759," ساز":4760," بص":4761," ويڊيو":4762," ڳالهين":4763," فيه":4764,"کن":4765," دان":4766," ڀري":4767," چيڪ":4768," ڀيٽ":4769," سڌ":4770," گيت":4771," تاريخي":4772," بود":4773," اسيمبلي":4774,"خبر":4775," مدا":4776," وَ":4777," چيز":4778," منظور":4779," خواهش":4780,"عتي":4781," واقع":4782," وو":4783," وڪي":4784," شكل":4785,"مممم":4786," +":4787," ڊزائن":4788," ليه":4789," امڪان":4790," اضافو":4791," انقلاب":4792," چيائين":4793," فوت":4794," فوري":4795,"سلام":4796,"قد":4797,"ڏين":4798,"گير":4799," ڏيئي":4800,"ھيو":4801," امان":4802," والدين":4803,"جز":4804," ڪانه":4805," پويان":4806," شاعري":4807," لنڪ":4808," ارس":4809," دائ":4810,"ack":4811,"جيڪي":4812," ايپل":4813," پئسا":4814," آرٽيڪل":4815,"پيا":4816,"ڪرين":4817,"هنگ":4818,"يد":4819,"گھ":4820," تك":4821," حلوه":4822,"ia":4823," آل":4824,"دير":4825," ويس":4826,"فيد":4827," رهندا":4828," عوامي":4829,"بئي":4830,"تنهنجي":4831,"لهم":4832," سمجهڻ":4833,"كيد":4834,">\n":4835," کڻڻ":4836,"شين":4837,"مز":4838,"ٻيو":4839," جيئ":4840," نوٽ":4841," آڪٽوبر":4842,"آءٌ":4843,"هندا":4844," خور":4845," صفحا":4846," سگھجي":4847," بونس":4848," ٽائي":4849," رهندي":4850," مَ":4851," ڀريل":4852,"est":4853," فوٽو":4854," ادائي":4855," مثل":4856,"؟؟\n":4857," آسمان":4858," آبادي":4859,"وس":4860,"ڊرائيڊ":4861,"خط":4862,"يق":4863," تعريف":4864,"باقي":4865," سڃاڻپ":4866," تجو":4867," انجنيئر":4868," عا":4869,"سمبر":4870," سفارش":4871,"اول":4872," عه":4873," ھون":4874," باغ":4875,"بة":4876," حبي":4877," سيپٽمبر":4878," موڪليو":4879,"طرح":4880,"هـ":4881,"چن":4882," انعام":4883,"ائيءَ":4884," زن":4885," ساٿي":4886," ناڪام":4887,"pp":4888,"رسي":4889,"وڪي":4890," ميڪ":4891," انڪار":4892," هوٽل":4893," مسئلا":4894,"يورٽي":4895," عذ":4896," محنت":4897,"تمام":4898,"ڙڪ":4899," خاط":4900," تنهنڪري":4901," روڊ":4902," سَ":4903,"الم":4904," تيل":4905," فري":4906," ٻڌل":4907," موقعي":4908," ليکڪ":4909,"کڻ":4910,"ليون":4911," نيست":4912," فوجي":4913," رواي":4914," Android":4915," نماز":4916," معنيٰ":4917,"ry":4918,"اسٽ":4919,"فاق":4920," مجموعي":4921,"فرنس":4922," خيلي":4923,"خخخخ":4924,"ib":4925,"ليا":4926,"يوم":4927," حيران":4928," نوان":4929," حمايت":4930," فور":4931," ويهي":4932," چوندا":4933," واپسي":4934,"29":4935,"عرف":4936,"والله":4937," رهيون":4938,"کيس":4939," فائلون":4940," گراهڪ":4941,"فري":4942,"وڙ":4943," جز":4944," مئ":4945," بيشڪ":4946,"صوصي":4947," وسيع":4948," آئ":4949," سست":4950," طلب":4951," اداري":4952," هليو":4953," the":4954,"نج":4955," لڪ":4956," ڇپ":4957," هئس":4958," ناهن":4959," ادي":4960," آزم":4961," عشق":4962," ٻُ":4963," انه":4964,"بادل":4965," يورپي":4966,"ثير":4967," چان":4968,"ليه":4969," بيت":4970," جنرل":4971," ڊيزائن":4972," مخالف":4973," عزت":4974," ايئن":4975," فطرت":4976," هه":4977,"دست":4978,"ٻن":4979,"ڪيتر":4980," مافي":4981," راح":4982," ڊجيٽل":4983,"لوڊ":4984," روم":4985," فرانس":4986," رابطي":4987," دشمن":4988," چنڊ":4989," ڪميون":4990,"كـ":4991,"نيو":4992,"ڪام":4993," موٽر":4994,"نوان":4995,"اهرين":4996," سرگرمي":4997,"مول":4998," اتر":4999," پرين":5000,"مايو":5001," ڏانھن":5002," لڳا":5003," گھڻو":5004," قسمت":5005,"وف":5006," آرڊر":5007," ~":5008,"تق":5009,"هاري":5010," مھ":5011," سدائين":5012," الحال":5013," ھر":5014," ٻڌو":5015," سوچڻ":5016," پهچائڻ":5017,"عورت":5018,"ٽيف":5019," سمجهان":5020," مذهب":5021," هندستان":5022,"ٽڪ":5023,"ٽون":5024," پنا":5025," گول":5026," خصوصي":5027,"روم":5028," تحريڪ":5029,"زندگي":5030,"شري":5031,"عة":5032," ڪابه":5033," رسي":5034," ڏها":5035,"ادري":5036," ٽا":5037," شيئر":5038," اسپين":5039," آڻي":5040,"پيڊيا":5041," هٿن":5042," ملڪيت":5043,"ياز":5044," درجي":5045," ڳالهائي":5046," اپڊيٽ":5047,"خدا":5048," رض":5049," موسيقي":5050," لسٽ":5051," سياحت":5052," زخمي":5053,"اهم":5054,"فل":5055,"جواب":5056," اڳي":5057," مره":5058," گهري":5059," اوچ":5060," سنڏ":5061," وڏن":5062,"od":5063,"نتي":5064," ڪرايو":5065," زير":5066," ادبي":5067,"يييي":5068,"گاهه":5069," هار":5070," خات":5071,"زارش":5072,"UM":5073," شده":5074,"سوال":5075," شاهه":5076," شعر":5077," اخبار":5078," هونديون":5079," آگسٽ":5080,"90":5081,"پين":5082," جيترو":5083," رائ":5084," عبد":5085,"گين":5086," پول":5087," قيم":5088," برانڊ":5089," مور":5090," منھنجي":5091," پروفي":5092," مقابلو":5093,"iz":5094," پٿر":5095," جرم":5096," ويٺو":5097," رکن":5098," ڪميشن":5099," احتجاج":5100," ڪاليج":5101," ڏکيو":5102," انجام":5103," پراڊ":5104," انصاف":5105,"ew":5106," هع":5107," ۔۔۔\n":5108,"ــــــــــ":5109," ڳالهايو":5110," ادائيگي":5111," ائ":5112," بلو":5113," انك":5114," ڏنا":5115,"روح":5116," هست":5117," بغ":5118," حرف":5119,"av":5120," پکي":5121," منزل":5122," تعالي":5123," ڪلاس":5124," قرآن":5125," r":5126," جئين":5127,"ريشن":5128," جاء":5129,"زيز":5130," نومبر":5131,"194":5132,"-\n":5133,"گهر":5134," ايڊي":5135," اينڊرائيڊ":5136," گاڏي":5137," ليش":5138,"::":5139," ساري":5140," کر":5141," پيروي":5142,"ٽيل":5143," ميمبرن":5144," فض":5145,"ائيٽ":5146," ضرورتن":5147," نالا":5148," فقير":5149,"35":5150,"70":5151,"وقت":5152,"ُون":5153," پٺيان":5154," راه":5155," واريون":5156,"فرد":5157," پئجي":5158," سڄو":5159," جبل":5160," تلا":5161," ٿوري":5162,"ڪيئن":5163,"ِين":5164," معن":5165," شرڪت":5166,"ct":5167," ڏياري":5168," اسر":5169,"ائنات":5170," طريق":5171,"هاڻ":5172," جيل":5173," کڻ":5174," بک":5175,"ياس":5176,"سنڌي":5177," فائل":5178," تسليم":5179,"تائي":5180," چيني":5181,"يڪار":5182," فرض":5183,"سڀني":5184," رجسٽر":5185," رانديگر":5186," عقي":5187,"ڏيهي":5188,"تنهنڪري":5189," سلسلو":5190," وفات":5191,"ly":5192," اگر":5193," ڪائون":5194," وٺو":5195,"ڪمپ":5196,"زش":5197," ڪانهي":5198,"اتل":5199," آھيان":5200," مشك":5201," سائيز":5202," نيوز":5203," اهل":5204," بچائڻ":5205," نشاني":5206," تجويز":5207," تم":5208," دار":5209,"زارت":5210," سگهندو":5211," خطرن":5212," اٿم":5213," سلا":5214,"الب":5215," موٽ":5216," شهرن":5217," وزيراعظم":5218," چڱو":5219,"رنگ":5220,"شد":5221," پَ":5222," نفر":5223,"ائپ":5224,"196":5225," ايشيا":5226," اقتص":5227," دعوي":5228,"خير":5229," ليگ":5230,"سندن":5231,"ينه":5232,"ھيءَ":5233," معاملي":5234,"همي":5235," کائي":5236,"hat":5237," کاتي":5238," نصي":5239," گهرجن":5240," قيمتي":5241," J":5242,"ڙيو":5243," حاد":5244," حاض":5245,"؟!\n":5246," تعاون":5247," خدمتن":5248,"قسم":5249," پيٽ":5250,"سٽڪ":5251," طاقتور":5252," مزو":5253," ڊپ":5254," ڪيتريون":5255," ٻيون":5256," متبادل":5257," راءِ":5258," ساڳئي":5259," پاليسي":5260,"بروري":5261,"ٻين":5262,"گھر":5263," مکيه":5264,"رير":5265,"لال":5266," روڪي":5267," سمجهه":5268," ناق":5269,"سام":5270,"قدر":5271," خريداري":5272,"مرا":5273," الج":5274," ضحك":5275," آيل":5276," گهم":5277," شما":5278," عط":5279," الك":5280,"ٽرن":5281,"ist":5282," ڊرائيو":5283," مصنوعات":5284," ير":5285,"ain":5286," تبا":5287," عم":5288,"اڻين":5289," ميان":5290," وينديون":5291," وسلم":5292,"**":5293,"،\"":5294,"آيا":5295," مسي":5296," كان":5297,"ووو":5298,"حاد":5299,"علا":5300,"فون":5301," بم":5302,"نگي":5303," پوائن":5304," عورتون":5305," حقن":5306," ڊائريڪ":5307,"ٺيون":5308," دهشت":5309," جنوري":5310,"دة":5311,"انسان":5312," اسم":5313," صور":5314," تبص":5315,"آمريڪا":5316,"UMX":5317,"500":5318," هٿي":5319," اوڀر":5320," منصوبي":5321,"hi":5322,"اڻا":5323,"عيت":5324,"ant":5325," منصوبو":5326," i":5327,"ڙهو":5328," هوائي":5329," پارڪ":5330," هيٺين":5331," مگر":5332," سه":5333," طيب":5334,"اده":5335," وجهي":5336,"ويب":5337," سيڙپڪاري":5338,"NUMX":5339,"اگر":5340,"ڌاري":5341," نع":5342," وانا":5343," خلاص":5344,"آآآآ":5345," مريض":5346,"زور":5347,"قلي":5348,"اڻيو":5349," هُن":5350," ڀاءُ":5351,"ڄڻ":5352," اڀ":5353," قلب":5354," ناول":5355,"ٽرويو":5356," آمدني":5357," رين":5358,"خن":5359,"یک":5360," باهه":5361," تنھن":5362," تقريبا":5363," رانديون":5364,"سيا":5365," هيءُ":5366,"هند":5367," کيڏ":5368," قرب":5369," سوي":5370," خدمتون":5371," نتيجو":5372,"ect":5373," برو":5374," شد":5375," خل":5376," ڊسمبر":5377,"توکي":5378," يورو":5379," هلائڻ":5380," ترجمو":5381,"og":5382," هائو":5383," مٽ":5384," ضمان":5385," برطان":5386," تربيت":5387," فرد":5388," ماڻهوءَ":5389,"ندڙن":5390," ملائي":5391,"op":5392,"طانيه":5393,"يار":5394," جهان":5395,"ـــــــــــ":5396," نواز":5397," اعترا":5398," مثبت":5399," شعور":5400,"کين":5401," قص":5402," هيس":5403," ڳڻ":5404," ڇڏڻ":5405," com":5406," سکڻ":5407,"مهر":5408,"ڊاڪٽر":5409,"ڙها":5410," گهو":5411," ماضي":5412," جانور":5413," a":5414," اٺ":5415,"استن":5416," پهتو":5417," اٿس":5418,"شوف":5419," مبار":5420," سِ":5421," کوٽ":5422," زر":5423," ضابط":5424," لانچ":5425," ڪيتري":5426,"حق":5427,"ديت":5428,"پوليس":5429," ڄاڻي":5430," سبق":5431,"سك":5432,"متي":5433," نين":5434," چاهيون":5435,"ین":5436," برداشت":5437," اصلا":5438,"اڃ":5439,"ـن":5440," اذا":5441," تھ":5442," گُ":5443," شف":5444," دول":5445,"ديءَ":5446," ڳنڍي":5447,"حض":5448," وڙ":5449,"يائون":5450," يونين":5451," ونڊوز":5452,"99":5453," ڪَ":5454,"ڪرن":5455,"ear":5456,"ks":5457,"طه":5458," اقول":5459," وزارت":5460,"ريج":5461,"33":5462,"وڏي":5463," عندي":5464," ڪانفرنس":5465," چيست":5466," >>":5467,"ID":5468," فخر":5469," قول":5470," روس":5471," ڪاررو":5472," سيڪيورٽي":5473," متعارف":5474,"اهه":5475," مجب":5476," منفرد":5477," الزام":5478,"مال":5479," اند":5480," شهيد":5481," لنڊن":5482," منع":5483," مردن":5484," ڪارپو":5485," چونڊي":5486," تجربي":5487," تازه":5488,"lin":5489,"طلاح":5490," بڪ":5491," فائيل":5492,"تيءَ":5493," وڌائي":5494," سرور":5495," ٽيبل":5496," تخليق":5497," افغانستان":5498,"تڏهن":5499,"كان":5500,"ڪتاب":5501," آدم":5502,"اصر":5503," اطلا":5504," ضمانت":5505,"پنگ":5506," سيني":5507," کني":5508,"ندين":5509,"ائس":5510," لهي":5511," وساري":5512," معاملو":5513," هزارين":5514,"جنگ":5515,"انگري":5516," ۾،\n":5517," واقف":5518," ڪجھه":5519," تڪليف":5520," لاش":5521," ڪوڙ":5522," اپريل":5523," عيسي":5524," جوڙجڪ":5525,"زڪ":5526," سير":5527," سڌي":5528," ويل":5529,"سٽريل":5530,"اھر":5531," گڏوگڏ":5532,"بع":5533,"حر":5534," واقعا":5535," رھيو":5536,"اڳتي":5537," تازو":5538,"45":5539,"انسي":5540,"عيد":5541," چيه":5542," خيالن":5543," بحالي":5544," پهچڻ":5545," اليڪٽر":5546,"غذ":5547," ڪھ":5548," نيڪ":5549," انو":5550," توڙي":5551," علامت":5552,"گوگل":5553," ممكن":5554," حڪمر":5555," خاصيتون":5556," گفتگو":5557,"خاب":5558,"ٿان":5559," افت":5560," بجي":5561," خلي":5562," روڪڻ":5563," گهرو":5564," اندازو":5565," عربي":5566," سهولت":5567," وڌو":5568," اولاد":5569,"--":5570,"ائشي":5571," ٽين":5572," غر":5573,"شيد":5574," ساهه":5575," ڏسندا":5576," con":5577,"جتي":5578," آھيو":5579," کپي":5580," فرو":5581," هڪٻئي":5582," الص":5583," يافته":5584," ڏيان":5585," ڪارڪن":5586," ڪاپي":5587,"ميرا":5588,"گهه":5589," سول":5590," گلي":5591," چپ":5592," ترڪي":5593," مقص":5594," رجحان":5595," معاهدي":5596," مجبور":5597," پيچي":5598," ڪوئي":5599," ماڻھن":5600," پسندي":5601," نتيجا":5602," سگھون":5603,"بخ":5604," جدو":5605," پيڪ":5606," عجب":5607," وڃائي":5608," ٽيون":5609," سائيٽن":5610," يونٽ":5611," متن":5612," وه":5613," نار":5614," پيئي":5615,"راج":5616," جنس":5617,"ڻيون":5618," اتفاق":5619,"ـــــــــــــ":5620,"پهريون":5621,"جبت":5622,"ڌا":5623," منح":5624," ڀڃ":5625,"ate":5626," صفحي":5627,"تاريخ":5628,"لائڻ":5629," پوزيشن":5630," ٽيڪس":5631," جانورن":5632," عمارت":5633," مدي":5634," پڌ":5635," هڻي":5636," لم":5637,"راهيم":5638,"ثن":5639," تڪر":5640," آخ":5641," بڻايو":5642,"شكرا":5643," زنده":5644," دعوت":5645," مني":5646," ڪائنات":5647,"ريس":5648," يال":5649," نظم":5650,"نئين":5651,"جيڪڏھن":5652," گنا":5653," سيک":5654," مرمت":5655,"igh":5656," يمكن":5657,"طل":5658," جما":5659,"ويه":5660," كم":5661," ابتدائي":5662," تعليمي":5663," كيف":5664,"az":5665,"li":5666,"سات":5667," وطن":5668,"ٽيون":5669," ڀڳ":5670," وڃان":5671,"گذريل":5672," مزاحمت":5673,"مض":5674,"ڇاڪاڻ":5675," بہ":5676," دليل":5677,"one":5678," سائيڪل":5679," روحاني":5680," واع":5681,"بلڪ":5682,"وق":5683,"ڊٽ":5684,"ڱي":5685," سعودي":5686," رخ":5687," روي":5688,"افظ":5689,"io":5690,"ُر":5691," تاب":5692," چڪ":5693," آهنگ":5694," ماپ":5695," ڏيندڙ":5696," كه":5697,"بات":5698,"اهري":5699," دوستي":5700," واقعن":5701," پيئڻ":5702," كنت":5703," گذر":5704," مينهن":5705," ذميوار":5706," ٽرانسپورٽ":5707,"qu":5708,"انڪ":5709," ضل":5710," ڪپڙا":5711," نڪتو":5712,"اڙي":5713,"بلا":5714,"زائين":5715,"ڪٽس":5716," تخ":5717," سازي":5718," کلي":5719," لازم":5720," فتح":5721," شراب":5722," اميدو":5723," اقتصادي":5724," مقصدن":5725,"تين":5726,"غي":5727," هٽ":5728," بندو":5729,"نداسين":5730,"سٽريليا":5731,"مڻ":5732,"ٻار":5733," هندو":5734," ڀلا":5735,"195":5736,"قاع":5737," </":5738," مهل":5739," ٻاهرين":5740," گهرن":5741,"بوت":5742," رکيل":5743," پابندي":5744,"مخت":5745," مڇي":5746," قاب":5747," وڌڻ":5748,"ازو":5749," انتخاب":5750," کوليو":5751," دهشتگر":5752," مؤ":5753,"باتي":5754," واپاري":5755," بدل":5756,"اھيو":5757," سرگرمين":5758," اٿي":5759," آيت":5760," الق":5761," هنا":5762," حلوة":5763,"ولا":5764," آندو":5765," حسن":5766," منٽن":5767," بيٺو":5768," ذريعو":5769," بدلي":5770,"آل":5771," رهو":5772," شروعاتي":5773," اندروني":5774," ٽيڪن":5775," کاڌي":5776," نر":5777," خون":5778," طلاق":5779,"ويئر":5780,"بهترين":5781," هلندڙ":5782," شعبي":5783," نفرت":5784,"OS":5785,"خب":5786," اغ":5787," هارڊ":5788," لطف":5789," رکندو":5790," ثقافت":5791,"ce":5792," متو":5793," هفته":5794," جوان":5795," انس":5796," موڊ":5797,"گيز":5798," رسول":5799," نگراني":5800," لنگ":5801," يس":5802,"شاء":5803," ڳنڍ":5804," ين":5805,"ڙائي":5806," فيبروري":5807," انتظامي":5808," پتو":5809," هذه":5810,"ورڪ":5811," درجه":5812," عليكم":5813," پاسو":5814," کاڌو":5815,"بند":5816,"مڪ":5817,"مني":5818," پهر":5819," سادي":5820,"اميد":5821," لائق":5822," انڊسٽري":5823," منحصر":5824,"داز":5825," ورلڊ":5826,"املن":5827," وٺندو":5828," دفعي":5829,"ماڻهو":5830," دستاويز":5831,"یس":5832," مول":5833," سالي":5834,"ئيس":5835," رُ":5836," ڏٺ":5837,"اريءَ":5838," طول":5839," سگه":5840," زبر":5841," سموري":5842," ترجي":5843," پروف":5844," خودڪار":5845," مرڪزي":5846," آڇ":5847," رکون":5848," اصطلاح":5849," ٻيٽ":5850," موڪلي":5851," ڳنڍيل":5852,"شاني":5853," بٽڻ":5854," ناس":5855,"ايس":5856,"طيف":5857," ڀرسان":5858,"يول":5859," دريا":5860,"اسلام":5861,"پوئتي":5862," سادو":5863," داخلا":5864," پاڻيءَ":5865," نمائش":5866," ]\n":5867,"بتي":5868," خطرو":5869," اٿئي":5870,"ep":5871,"بائي":5872," حيات":5873,"ميشن":5874," ميڊ":5875,"فيت":5876," اُهي":5877," پڙهندڙ":5878," پاور":5879,"36":5880,"سچ":5881,"ڪجھ":5882,"ائجي":5883," استح":5884,"اڪس":5885," سرڪار":5886," معاشي":5887,"ثار":5888," چڙهي":5889," الش":5890," ڪيان":5891," محبو":5892," احد":5893," ڇڏيا":5894," اچو":5895,"ity":5896," پالڻ":5897," کولي":5898,"ادن":5899,"ملڪ":5900," راضي":5901," هفتن":5902," ابي":5903,"ريٽري":5904,"امين":5905,"ميٽ":5906," منظوري":5907," سکيا":5908," اڳواڻ":5909," حملو":5910,"^\n":5911," وهي":5912," معاملن":5913," پنڌ":5914," آفيسر":5915," ڪائونسل":5916,"عين":5917," وت":5918," وِ":5919,"افر":5920," امداد":5921,"اوت":5922," مطالبو":5923,"اڳيون":5924,"حة":5925,"دور":5926,"زز":5927," عالي":5928," غم":5929,"ڪلهه":5930," ذهني":5931," ڪرو":5932," پچ":5933," اسپي":5934," قبر":5935," ٽئين":5936," بيٽري":5937," برقي":5938," اتحاد":5939," چارج":5940," ڪلاڪن":5941," بادشاهه":5942,"ـه":5943," چئن":5944," جادو":5945," بيهي":5946," ليس":5947,"لامه":5948," موجودگي":5949," چاهين":5950," ڪهڙا":5951," آهستي":5952," طئي":5953," روايتي":5954,"ev":5955,"ies":5956," انجڻ":5957," توقع":5958," ريلوي":5959," نقل":5960," والد":5961," انفرا":5962," جرمني":5963," جد":5964," سپر":5965," سپورٽ":5966," بيش":5967," تنظي":5968,"که":5969," مذ":5970," ووٽ":5971,"يوس":5972," اوھين":5973,"are":5974," هلڻ":5975," روزاني":5976," هُو":5977,"زمين":5978," مها":5979,"تيون":5980,"سيل":5981," ڌو":5982," ساٿ":5983," ڪاوڙ":5984,"ؤر":5985," موثر":5986," مرضي":5987," چوندو":5988," علائقو":5989," اسٽيٽ":5990," سڃاتو":5991,"ook":5992," وڊيوز":5993," انٽرنيشنل":5994," عذاب":5995,"ڪمپني":5996,"حڪم":5997,"فٽ":5998," وڪ":5999," پرس":6000," تنقي":6001," ارادو":6002," خاطر":6003,"ـو":6004," عشان":6005," پريس":6006," اڳوڻي":6007," ميوزڪ":6008," انٽرويو":6009,"ليءَ":6010," ٻولين":6011," ڊرائ":6012," y":6013," شم":6014," هاءِ":6015," منصوبن":6016," خاموش":6017," تهيه":6018," پلان":6019," بجا":6020," گلو":6021," سوالن":6022," وفاقي":6023," پراڊڪٽ":6024,"سري":6025,"ڪارن":6026," شب":6027," ڪمزور":6028,"افتي":6029," آھيون":6030," قوت":6031,"خلت":6032," ڀرپور":6033," شڪر":6034," هيڪ":6035," ڀرو":6036," شيءَ":6037," تعرف":6038," دم":6039," لائي":6040,"راق":6041," هيٺيان":6042," گهڻن":6043," کنيو":6044,"أن":6045,"شنگ":6046,"وش":6047,"پاني":6048," عقل":6049," ڪرين":6050," هيك":6051," پرڏيهي":6052," ھئا":6053," احمد":6054," چوڌاري":6055,"بادت":6056,"كره":6057," ؛\n":6058,"):":6059,"نل":6060," ادار":6061," مصر":6062," طال":6063," مقام":6064," اخر":6065," خبرون":6066," ناقابل":6067," هت":6068," ٿور":6069," عنوان":6070," عزيز":6071," حا":6072," الر":6073,"ايي":6074," احتر":6075," دفعا":6076," آفريڪا":6077," خطرناڪ":6078,"oin":6079,"فس":6080," تار":6081,"ive":6082," سهول":6083," ڪارروائي":6084,"ئيشن":6085,"جيڪٽ":6086," سرٽيف":6087," ارت":6088," شريف":6089," حمل":6090," حرار":6091," ٻول":6092," تعارف":6093," آخرڪار":6094," تجارتي":6095," پيرن":6096," هينئر":6097," علمي":6098," &":6099,"صب":6100," وڌندڙ":6101," ڪناري":6102," پنجن":6103," انسانن":6104," رھيا":6105,"بط":6106,"منهن":6107," اڇ":6108,"ريه":6109," پها":6110," نھ":6111," نرم":6112," وڌايو":6113," ٽري":6114," ڪنڊ":6115," هئاسين":6116," فائدا":6117," صنعتي":6118,"ood":6119," ڊائونلوڊ":6120,"آباد":6121,"ڪول":6122," وڪيل":6123," نگ":6124," پوئتي":6125," ريل":6126," أنا":6127," ڄاڻڻ":6128," In":6129," وڪيپيڊيا":6130," امين":6131," وع":6132," نبي":6133," ٽريڪ":6134," سرهندي":6135,"خوش":6136," قبضو":6137," ٻوليءَ":6138,"ڪراچي":6139," فٽبال":6140," ملازمن":6141,"واق":6142," خطري":6143," روزانو":6144," تشدد":6145," Y":6146,"آي":6147," مٽي":6148," ملو":6149," ماڳ":6150,"اُن":6151," فيڪ":6152," قيد":6153,"ــــــــــــــ":6154," ڊگهو":6155," مِ":6156," آڏو":6157," سڪ":6158," سند":6159," هلائي":6160,"ائتو":6161,"تير":6162," پيرو":6163," فرم":6164,"تمند":6165,"پريم":6166,"ill":6167," ڪورونا":6168," شهرين":6169,"بيا":6170," شور":6171," بيمار":6172," برن":6173," منتقلي":6174," نڪرڻ":6175," خارجي":6176," وصول":6177," اور":6178," ماهي":6179," انگيز":6180," ڊبل":6181," تعجب":6182," لڳل":6183," پروڊ":6184," عندك":6185," چرچ":6186," متحرڪ":6187," پلاسٽڪ":6188,"مهرباني":6189,"حضرت":6190,"cl":6191," ڪرڻي":6192," مسجد":6193," سنجي":6194,"ros":6195," بچائي":6196," فيصلي":6197," هائوس":6198,"31":6199,"ik":6200,"ربي":6201,"وين":6202,"ريح":6203," ويٺي":6204," مدت":6205," ناھي":6206," أن":6207," حصيداري":6208,"لك":6209," ٿر":6210," الت":6211," كلام":6212," ڊيٽ":6213,"ائونڊ":6214," ايئرپورٽ":6215," خوراڪ":6216," مسيح":6217,",\n":6218,"day":6219,"وڃ":6220," سؤ":6221,"ونڊي":6222," رول":6223," ملندو":6224," بلند":6225," معيشت":6226,"ھار":6227," سيل":6228," برطانيه":6229,"زيد":6230," ؟؟\n":6231,"OV":6232,"وب":6233," هستي":6234," رسم":6235,"ائتي":6236," روپ":6237," Aw":6238," بچڻ":6239," of":6240," حاضر":6241," Z":6242,"ئڪ":6243," نج":6244," يح":6245," سيڪريٽري":6246," يقول":6247,"up":6248," نهايت":6249,"موت":6250," دوري":6251,"ell":6252," ضحكت":6253,"eb":6254,"دف":6255,"ذير":6256," تقريب":6257," ڄڻا":6258," سونهن":6259," حرڪت":6260,"آخرڪار":6261,"ٽيوب":6262,"32":6263,"شور":6264," جاي":6265," ورهين":6266," ملازم":6267," ٿينديون":6268,"ft":6269,"زح":6270," پٺ":6271," پائڻ":6272," بدن":6273," رھي":6274," قاع":6275," جاڳ":6276," ڊيسڪ":6277," ڊزائين":6278," فائدي":6279," حوص":6280," تباهه":6281,"آهي":6282,"ڏن":6283," بزر":6284," عبادت":6285," ڪمن":6286," ٻڌائڻ":6287," نسبت":6288,"able":6289,"aw":6290,"نالو":6291," ڪلام":6292," ترا":6293," وم":6294,"يڪو":6295,"ٽيس":6296,"اٽ":6297,"خه":6298," جميل":6299," ڪچ":6300," ڪسٽم":6301," ورا":6302,"ورة":6303," شريڪ":6304," لڳندو":6305," چيئر":6306," ڪنديون":6307," بعض":6308,"آهن":6309,"آئي":6310," وحد":6311," اينڊ":6312," باقاع":6313," ڀيڻ":6314," پروفيسر":6315,"for":6316," ڇڏيندو":6317," عرض":6318," حصا":6319,"انسيسي":6320,"ثريت":6321," تياري":6322," آلو":6323,"لاقي":6324,"لابي":6325," ملندي":6326," ڌن":6327," ڪمپنيون":6328," اکر":6329," کير":6330,"جيل":6331," يكون":6332," ڊسپ":6333," ورزن":6334," مسلم":6335," مرڻ":6336,"سٽريشن":6337,"هيٺ":6338," شن":6339," چڙ":6340,"امام":6341," روسي":6342," لڳائڻ":6343," واقعو":6344," ٺاهيل":6345," دريافت":6346," اعتبار":6347," نمائندگي":6348," هوء":6349," رکندي":6350,"ڊيشن":6351," نيشنل":6352," ڪئميرا":6353,"ight":6354,"يڪا":6355,"سيت":6356," گھڻي":6357," اختلا":6358,"جع":6359,"طر":6360," امري":6361," آغ":6362," قلم":6363," پيماني":6364," هيل":6365,"ang":6366," خاصيتن":6367," قابليت":6368," انڊيا":6369,"ويد":6370,"خود":6371," معاشري":6372,"ضر":6373," رش":6374," ايج":6375,"هاها":6376," غلام":6377," ڪارخ":6378," عملن":6379,"زمرو":6380," اليڪشن":6381," نوجوانن":6382," چمڙي":6383," سئو":6384,"نده":6385," شاه":6386," ياداشت":6387," ڇڏيندا":6388," ڪميٽي":6389," ساڻس":6390," سلامت":6391," ڪلب":6392,"ارات":6393," جولاءِ":6394,"ديث":6395,"مارٽ":6396," زبردست":6397,"اچو":6398,"غل":6399,"كِ":6400,"يرن":6401," نقطي":6402," مسلمانن":6403,"\"مون":6404,"))":6405,"شهر":6406,"طع":6407," فى":6408," طوف":6409," پرت":6410," ڪاغذ":6411," گهٽتائي":6412," شرطن":6413," ؟؟؟":6414," نتيجن":6415," چمڪ":6416,"مج":6417," حب":6418," لئه":6419," مناف":6420," معصو":6421," فيشن":6422," ثبوت":6423," سگھوٿا":6424," اطلاع":6425,"ثاني":6426," سهڪ":6427," هئو":6428," sub":6429," واسطو":6430,"\"،":6431,"گم":6432," جشن":6433," اكيد":6434," سختي":6435," پد":6436," ٺهر":6437," چيف":6438," پڙهو":6439," ظلم":6440," فورم":6441,"آخري":6442,"پلز":6443," جار":6444," چُ":6445," الموضوع":6446,"ٽيڊ":6447," غائب":6448," مارجي":6449," صفحو":6450," تڪرار":6451,"com":6452,"ود":6453," آء":6454," کٽ":6455," رهجي":6456," گولي":6457,"دوست":6458,"ڪيم":6459," ميچ":6460," پرواز":6461," پڙهيو":6462,"300":6463,"اِ":6464," بچي":6465," اندو":6466," تصويرن":6467,"ame":6468," اسٽيل":6469,"ماڻهن":6470," متعلق":6471,"ينڊ":6472," ندار":6473,"لاء":6474," توجي":6475,"سيءَ":6476,"لوب":6477," سڀاڻي":6478," سربرا":6479," مشق":6480," حالتون":6481," پريشاني":6482," ترجيح":6483," احترام":6484,"OVID":6485,"tr":6486,"ڌر":6487,"انداز":6488," ڪِ":6489," آم":6490," ميون":6491," ڀريو":6492," مادي":6493," ملن":6494," مثالي":6495," افز":6496," همرا":6497," مهينا":6498,"كتب":6499," معاهدو":6500," ميني":6501," تت":6502," منك":6503," گرد":6504," هيٺان":6505,"سائ":6506,"مٿي":6507,"ژه":6508," وهڪ":6509," پنھنجو":6510,"اخ":6511," مزا":6512,"لائ":6513," جوڙي":6514," گزارش":6515," چور":6516," فين":6517," ايش":6518," ڪيئي":6519,"اصلي":6520,"نوٽ":6521," رياضي":6522," ڊيل":6523," ڏسندي":6524," ابراهيم":6525,"،،":6526,"ڱو":6527," نون":6528," راي":6529,"ديه":6530," ويٺا":6531," مليا":6532," مددگار":6533," th":6534," پهچائي":6535," ڪهاڻيون":6536," اثرات":6537,"*\n":6538,"ip":6539," تسل":6540," آي":6541," پيل":6542," هلندو":6543," پنهنجون":6544," انسانيت":6545," بلوچ":6546," ڊائريڪٽر":6547," دولت":6548," پسنديده":6549,":D":6550,"ـر":6551," يلا":6552,"سيد":6553," طرفن":6554," افسوس":6555," مٿين":6556," مستقل":6557,"آمريڪي":6558," اوچتو":6559,"شمي":6560," آپشن":6561," سارا":6562," پرست":6563,"ويل":6564," اداڪار":6565,"37":6566,"ئفڪ":6567,"لل":6568," آءُ":6569," ڀارت":6570,"نواريو":6571," ريڊيو":6572," لڳائي":6573," بلاڪ":6574,"ھا":6575," مهان":6576," مفيد":6577," بست":6578," تيزي":6579," حملي":6580,"منت":6581,"193":6582," اُهو":6583,"۔۔۔":6584," مطالعو":6585," بازار":6586," اٽڪل":6587,"طب":6588,"اندر":6589," تنگ":6590,"رفي":6591," ذي":6592," فيلڊ":6593," گهرج":6594," تقرير":6595," ننڍڙي":6596,"كو":6597,"ڀي":6598," گنج":6599," مستحڪم":6600,"گهڻو":6601," رانديگرن":6602," and":6603,"ـہ":6604," مضحك":6605," کنڊ":6606," اليوم":6607," ماهه":6608," sp":6609," تقسيم":6610," ڏيکاريو":6611," قدرت":6612," اسرائيل":6613,"95":6614,"ثو":6615,"هذا":6616," مائي":6617," بنگ":6618," چڪر":6619," الخ":6620," ڊول":6621," لوڪ":6622," شاعريءَ":6623,"34":6624,"ظاهر":6625,"انج":6626," جوا":6627," دؤر":6628," قال":6629," زهر":6630," ھا":6631,"حيد":6632,"ans":6633," الناس":6634," ٽائيم":6635," چڪاس":6636,"قانون":6637," فني":6638,"شروع":6639,"وَ":6640," جُ":6641," آسٽريليا":6642," هڻ":6643," خصوص":6644," معك":6645," ٽيو":6646,"بيه":6647," اڪثريت":6648," ننڍو":6649,"زه":6650,"صير":6651,"عب":6652,"ڊين":6653," شھر":6654,"ابيس":6655,"ايش":6656," ننڍڙو":6657," ڪورس":6658," آپريٽنگ":6659,"مُ":6660,"مئن":6661,"مگر":6662," امر":6663," حج":6664,"ميٽر":6665," روانو":6666," ماء":6667," ڪنڌ":6668,"ard":6669," چوان":6670," پيامبر":6671," نسخو":6672," وقف":6673," خارج":6674," ارسال":6675,"لهه":6676,"ٽيڪ":6677,"ڪٿي":6678," مآ":6679," پٽي":6680," سيد":6681," ڪارڻ":6682," مصروف":6683," جرمن":6684," توجيهي":6685,"فيس":6686," لڳايو":6687," پارليا":6688," جانچ":6689," موڪلڻ":6690," ايوارڊ":6691,"فين":6692," تري":6693,"هيءُ":6694,"ليز":6695," منسو":6696,"سٽس":6697," ھاڻي":6698," سرچ":6699," چوري":6700," اُتي":6701,"جهد":6702," ڦر":6703," ڊومين":6704," مائڪرو":6705," پوائنٽ":6706," هٿيار":6707," تنقيد":6708,"ذري":6709," بيا":6710," برف":6711," صلي":6712," خواهي":6713," اهڙن":6714,"فاقي":6715," ڀيري":6716," ٽرئفڪ":6717,"عليه":6718," اشتهار":6719," مراد":6720,"ديو":6721,"سار":6722,"صبح":6723," ڪارن":6724,"ليش":6725,"اسم":6726," پيج":6727," معت":6728," فيك":6729," سگهيا":6730," اعرف":6731," اخلاقي":6732," بنائڻ":6733," پاڙي":6734," ثقافتي":6735,"44":6736,":-":6737,"جهي":6738,"ڏس":6739," مله":6740," رڪا":6741," فصل":6742," فعل":6743,"اسون":6744," چيم":6745," بندر":6746," هُئي":6747,"محمد":6748," سهڻي":6749,"بست":6750,"شى":6751," اسمارٽ":6752," قيام":6753," اڳواڻن":6754," پروسيسنگ":6755,"دائش":6756,"الح":6757," ڪيسن":6758," ڌاري":6759," is":6760,"ne":6761," فول":6762," گذارڻ":6763," پياري":6764," فنڪشن":6765," نيٽورڪ":6766," نصب":6767,"ڪيترن":6768," x":6769,"مڪن":6770," جمي":6771," تضحك":6772," سستي":6773,"ــن":6774," لغ":6775," ويڙ":6776," ميشه":6777," مشغ":6778,"اااااا":6779," اسٽاڪ":6780," ماهرن":6781," ڏوهه":6782," محبوب":6783," لال":6784," يك":6785," بيٺل":6786," برسات":6787,"ore":6788," مخال":6789," بنت":6790," بحران":6791," ڊوڙ":6792," toاڻڻ":6793,"\"مان":6794,"NT":6795,"ڊس":6796," هتان":6797,"روس":6798," وراڻيو":6799," راهه":6800," صفائي":6801," بالغ":6802," گيري":6803,"تاح":6804," كذا":6805,"سوسي":6806," ٻاهران":6807,"ـــــــــــــــ":6808," موبائيل":6809," مسافرن":6810," سهڪار":6811,"طين":6812,"ٿون":6813,"چڪ":6814," اپيل":6815," وائي":6816," هذي":6817," بش":6818," خطي":6819," سرمائي":6820,"جنن":6821," سيڪشن":6822," رهندڙ":6823," چونڊن":6824,"39":6825,"55":6826,"آم":6827,"ڪير":6828," سهي":6829," پمپ":6830," ڊڄ":6831," ڀو":6832," كده":6833," گهڙي":6834," وڏين":6835," وقتي":6836," چيئرمين":6837,"48":6838,"آخ":6839," اياز":6840,"ونگ":6841," بازي":6842," اسڪو":6843," ٽڪر":6844," ڪوٽ":6845,"ort":6846," چينل":6847," تفصيلي":6848,"ھه":6849," بط":6850," يهم":6851," معاف":6852,"مود":6853,"ine":6854," ٽرمين":6855,"act":6856,"out":6857," اوندا":6858," خالص":6859,"ff":6860,"جها":6861,"جئين":6862,"ھڻ":6863," والو":6864," راس":6865," ڏٺي":6866," توسان":6867," سوئ":6868," خودم":6869,"موجود":6870," فارميٽ":6871,"ٻنهي":6872,"اڃا":6873,"أي":6874,"كين":6875," سلي":6876," پيرا":6877," ڊسڪ":6878,"اڪثر":6879,"ماعي":6880," گڏج":6881," عليك":6882,"urn":6883," سائنسي":6884," صلاحيتن":6885," اسٽوريج":6886,"انگريزي":6887," ڊيٽابيس":6888,"حش":6889," نالن":6890," ويندس":6891," ساح":6892,"ريئر":6893," بقى":6894," انها":6895," داري":6896," فلو":6897," كمان":6898," بلڪه":6899," ديگر":6900," فارسي":6901," روزگار":6902,"ast":6903," عيد":6904," اعتراض":6905," گنجائش":6906,"دى":6907,"قص":6908,"😂😂":6909," پيون":6910," سيٽنگ":6911," مرض":6912," ڇڏين":6913," سگهندي":6914," مطالعي":6915," ماسڪ":6916," knowاڻ":6917," جدوجهد":6918,"پاڻي":6919," پلس":6920," پڇا":6921," نان":6922,"يامت":6923," چرا":6924,"هوا":6925," صبر":6926," الب":6927,"سٽمر":6928," اعز":6929,"192":6930," گهٽائڻ":6931," هلندي":6932," پاڪستاني":6933," تبصرو":6934," ڊرائيور":6935,"ڪڙي":6936,"گاري":6937,"گها":6938," ڪئن":6939,"راحه":6940," ڀائ":6941," مليل":6942," بچايو":6943,"سط":6944,"صح":6945," مبت":6946," رڪ":6947," انٽ":6948,"سٽن":6949," فيها":6950," ٺاھ":6951,"اش":6952,"نئون":6953," مزي":6954,"جيڪا":6955,"ائز":6956," عادي":6957," .\"\n":6958," وارين":6959," چونڊڻ":6960," صحتمند":6961,"rypt":6962,"ial":6963,"رپورٽ":6964,"زون":6965,"هيز":6966," ۾,":6967," فنڊ":6968," لمح":6969," برائو":6970," راڄ":6971," فراهمي":6972," مداخلت":6973," ڪارڪنن":6974," اندوز":6975,"wit":6976,"پنهنجو":6977,"ــه":6978," عرف":6979," پيء":6980," زو":6981,"فيئر":6982," احوال":6983," تنھنجي":6984," رساله":6985," هنڌن":6986," شڪست":6987," تخليقي":6988," ڊيوائس":6989," ويڪسين":6990," ڪميونٽي":6991," معنى":6992," ڊسپلي":6993," طوفان":6994," ڪٽ":6995," پيڪي":6996," بري":6997," صدار":6998,"150":6999,"ost":7000," دعويٰ":7001," مبارڪ":7002,"ren":7003,"تس":7004,"مرح":7005," مصي":7006," دفا":7007," ميلا":7008," اصلاح":7009," ڇوڪرو":7010," اکرن":7011," فلٽر":7012," جذباتي":7013," کيڏڻ":7014," ڪارپوريشن":7015,"ob":7016,"ايا":7017," روايت":7018," نوٽيس":7019," وڏيون":7020," جهڙا":7021," پڇڻ":7022," حوالو":7023," ناممڪن":7024,"عالم":7025," منعقد":7026," حرارت":7027,"\"ها":7028,"تش":7029,"حالي":7030,"قب":7031,"َه":7032," ڪنو":7033," سمارٽ":7034," رکندا":7035," ليڪ":7036," ظاهري":7037," پيغمبر":7038," قدمن":7039," ڪٿان":7040," عض":7041," خاني":7042,"اريون":7043,"ايپل":7044," واچ":7045," ھجي":7046,"پيدا":7047," مطمئن":7048,"خلص":7049," رنگن":7050," تڪڙو":7051,"بابا":7052," ڌيءَ":7053,"قسمتي":7054,"برو":7055,"بها":7056," بُ":7057," گيا":7058," درا":7059," ڪريم":7060," ڪريڊٽ":7061,"ميز":7062," پيچ":7063," پڙهائي":7064," ڪيائون":7065," اختيارن":7066,"رج":7067,"سائي":7068,"شپ":7069,"ريبن":7070," گورن":7071,"ميد":7072,"اهين":7073,"ڻيءَ":7074,"191":7075," نمايان":7076,"ختيار":7077," جمهوريت":7078,"دك":7079,"پوي":7080,"ڪارو":7081," ٻا":7082," ڪرن":7083," هندي":7084," روئي":7085,"عمر":7086,"سمس":7087,"سٽنگ":7088," ھٿ":7089,"منٽ":7090," فرمايو":7091," سياري":7092," St":7093," ديگه":7094," >>>":7095," طبيعت":7096," برطانيا":7097," پيچيده":7098,"eg":7099,"لڪ":7100," قبي":7101,"وراخ":7102," ڪپڙن":7103,"جانءِ":7104," اثا":7105,"مختلف":7106,"هائڻ":7107,"يٽ":7108," مند":7109," ويچ":7110," روڪيو":7111," كله":7112," سنئون":7113," ادارو":7114," اسٽار":7115,"her":7116,"ساب":7117,"عتن":7118,"ملا":7119,"پير":7120," رئيس":7121," شنو":7122,"اصلات":7123," محل":7124," شاخ":7125," ثاني":7126," ايڪسڪس":7127,"آإ":7128,"زد":7129,"لح":7130,"پيام":7131,"ڳال":7132,"ڻين":7133,"هيٺيان":7134," بلي":7135," باس":7136," رٿ":7137," لاهي":7138," منفي":7139," كن":7140,"ساڳ":7141," ڄاڻو":7142," وسيلي":7143," تعلقات":7144,"اھي":7145,"زخ":7146,"فصل":7147,"قدم":7148,"ِر":7149," ڪتي":7150," قلت":7151," روڪ":7152," مشورو":7153," رهنمائي":7154,"گريس":7155," سامونڊي":7156," ڌرتيءَ":7157," طريقيڪار":7158," ضلعي":7159," ]":7160,"غر":7161,"ھون":7162," مام":7163," نك":7164," سوا":7165,"ترج":7166,"مانس":7167,"احد":7168," مرحلي":7169,":)\n":7170,"pl":7171,"ااي":7172,"شڪر":7173,"مخ":7174,"ديل":7175," طرز":7176,"يڪر":7177," خوبي":7178," كلهم":7179," ترميم":7180," تحرير":7181," جوابدار":7182," پهچايو":7183,"ious":7184,"علم":7185,"علامه":7186," سٽ":7187,"هرن":7188," يضحك":7189," محتا":7190," كتير":7191," COVID":7192," برادري":7193," کاٻي":7194,"ide":7195,"اً":7196,"وان":7197,"کس":7198," ٿڪ":7199,"ائڊ":7200," منھن":7201,"ڪايو":7202," ورها":7203," ڪاٺ":7204," پارٽين":7205," سيڪنڊ":7206," همه":7207," گوشت":7208," ,\n":7209,"ذيب":7210," عاشق":7211,"65":7212,"CL":7213,"طلع":7214,"قة":7215," شمار":7216," حقو":7217," حساس":7218,"ايف":7219," پرن":7220," بيل":7221,"ائنس":7222,"ساڳي":7223,"عنى":7224," بجيٽ":7225," بجاءِ":7226," آغاز":7227,"خذ":7228,"قق":7229," تاج":7230," بـ":7231," بزن":7232," باڪس":7233," ٿڌي":7234," عار":7235," لأ":7236," لطيف":7237,"ڪيٽن":7238," هيڊ":7239," وسيلن":7240," ماسٽر":7241," إن":7242," فلسفي":7243,"indhi":7244," پان":7245," خز":7246," لح":7247," لما":7248,"ويري":7249," ويجهي":7250," سروسز":7251," ٻُڌ":7252," جيت":7253," ڏيکارڻ":7254," تجربن":7255," صوبي":7256," today":7257," واڌاري":7258," رهائش":7259,"نظر":7260," اصولن":7261," چئبو":7262," عهدي":7263," خاتمي":7264,"ver":7265," مذا":7266," ڏهه":7267,"نيت":7268,"راحي":7269," ڦا":7270," ڪيميائي":7271," ايجنٽ":7272," ٽاپ":7273,"links":7274,"75":7275,"ذف":7276,"سُ":7277,"طيني":7278,"مات":7279,"ٻه":7280,"لائن":7281," چهري":7282,"راف":7283," ويٺل":7284," شيخ":7285," تعال":7286," رياستن":7287," اعظم":7288,"محبت":7289," حضور":7290," انگلينڊ":7291,"ug":7292,"اءَ":7293,"ضل":7294,"عاد":7295,"ڪور":7296,"گهي":7297," گون":7298,"ويت":7299," فرانسيسي":7300,"ens":7301," خوشبو":7302," ماحولياتي":7303," احتيا":7304," پابند":7305," استحڪام":7306," پالڻھار":7307," اختلاف":7308," افزائي":7309,"دام":7310,"ذر":7311," آڊيو":7312," پورا":7313," ۽\n":7314," ٻانهن":7315," غذا":7316," ھيٺ":7317," بھترين":7318," تلاش":7319," واعدو":7320," رڪاوٽ":7321," مشغول":7322,"ail":7323," گلن":7324," شدت":7325," ٿيس":7326," ايسوسي":7327," ذخي":7328," متفق":7329," مارڻ":7330," پڇي":7331," شكله":7332," گريڊ":7333,"ud":7334,"حل":7335," ڪتو":7336," جيتري":7337," شئي":7338," البن":7339," زياد":7340," مشاه":7341," pro":7342," مرحلن":7343,"club":7344,"38":7345,"سى":7346,"شار":7347,"هُو":7348,"َي":7349,"گان":7350,"گوار":7351," افيئر":7352," پذير":7353," جوش":7354," داست":7355," چاھيو":7356," پيئ":7357," پيدائش":7358," ڪنيڪشن":7359," ذريعن":7360,"لينج":7361," شعبن":7362," رجسٽريشن":7363," عدال":7364," نشاند":7365," ڪاريگر":7366," مهمان":7367," پينل":7368,"<text":7369,"مص":7370,"مست":7371,"پڙ":7372,"ڊمي":7373," سلو":7374," سوراخ":7375," دلي":7376," ڏهن":7377," فضي":7378," سيلز":7379," كثير":7380," نيٺ":7381,"ٽاپ":7382," انگن":7383," نفسياتي":7384," جامع":7385," منجهان":7386,"clublinks":7387,",,":7388,"قائي":7389,"پال":7390," وڳي":7391," يکي":7392,"نگر":7393,"زيل":7394,"سلمو":7395," ch":7396," ٻارڙن":7397,"ust":7398," ننڍن":7399," ايپليڪيشنن":7400,"گراف":7401," لينڊ":7402," چانهه":7403," گهمڻ":7404," تنظيمن":7405,"تكم":7406," رن":7407," ڏند":7408," بهار":7409," ڀلو":7410," سراس":7411," پيشڪش":7412," وچولي":7413,"end":7414,"افيه":7415,"سپل":7416," شڪايت":7417," يڪ":7418,"َل":7419,"لفظ":7420," يوٽيوب":7421," شرم":7422,"rev":7423," طبقي":7424," ڀروسو":7425," ڪچهري":7426," e":7427," ــ":7428,"TE":7429,"اڊا":7430," آپ":7431,"يارين":7432," لات":7433," الط":7434,"ميه":7435," يب":7436,"ٽيلي":7437," پوک":7438,"بيشڪ":7439," احلى":7440,"age":7441,"گرافي":7442,"ڪيترائي":7443,"witter":7444,"اك":7445," مـ":7446," وڄ":7447," صدا":7448," المل":7449,"احب":7450," ڌاتو":7451," عرصو":7452," اقتدار":7453," سچي":7454," لله":7455," ڪرڪيٽ":7456," منز":7457," تقول":7458," ؟!\n":7459," انگريزن":7460," تبديليون":7461," خوشيءَ":7462," ميزبان":7463," فطري":7464," le":7465," مدر":7466," داد":7467," ايڏو":7468," پيارا":7469," ناچ":7470," تبديلين":7471," اتان":7472,"ass":7473," خانگي":7474," ميڪس":7475," آھين":7476," کسي":7477," ٿڌو":7478,"امون":7479," صفا":7480," امزح":7481," هليا":7482," ڳالهائيندي":7483," دروازو":7484," خاموشي":7485,"ئت":7486,"رائي":7487,"هارن":7488,"ڳن":7489,"ــا":7490," گير":7491,"ستجو":7492," مرت":7493,"يادت":7494," عطا":7495,"سف":7496,"سڪر":7497," ماريو":7498," رشتي":7499,"ــو":7500,"ليد":7501," فريم":7502," رهيس":7503," پهلو":7504," ريگ":7505," يادگار":7506," اهڙيون":7507,"فناڪ":7508,"نظارو":7509," تعاليٰ":7510," ادارا":7511,"اڪي":7512,"ضع":7513,"انين":7514,"انساني":7515," پڄ":7516," حاڪ":7517," لكن":7518," ماٺ":7519," اخي":7520," چوٿين":7521," فوٽ":7522," Am":7523," سينٽ":7524," اسڪولن":7525," اكثر":7526," مصيبت":7527," نشاندهي":7528,"اڳو":7529,"شاه":7530,"ڪڙ":7531," سپريم":7532," گرين":7533," صدين":7534," معافي":7535," وٽان":7536," سببن":7537," سرٽيفڪيٽ":7538,"67":7539,"Next":7540,"ok":7541,"our":7542,"جري":7543,"گفت":7544," مھين":7545," تد":7546," آفت":7547," آيس":7548," ڪيبل":7549,"انيءَ":7550," سالگر":7551,"فيه":7552," پورهي":7553,"hats":7554," باقاعده":7555,"eh":7556,"كات":7557," ڪلي":7558," همين":7559," باا":7560," انھيءَ":7561,"استي":7562," والا":7563,"اليشن":7564," انتها":7565," چيٽ":7566," بيوقو":7567,"ock":7568,"ews":7569,"اپور":7570,"ذب":7571,"ٻارن":7572,"ید":7573," ماڻي":7574," ۾)":7575," رپيا":7576," انح":7577," گئس":7578," تير":7579," سگنل":7580,"اڻيءَ":7581,"ماء":7582,"ana":7583," لکيا":7584," بوتل":7585,"ome":7586," مرحله":7587," قطار":7588,"تنهنجو":7589,"ماس":7590," ڪامي":7591," سچو":7592," هاري":7593," بقا":7594," رع":7595," سمو":7596," ڌڪ":7597," دوم":7598," اسڪين":7599," نصيب":7600," ميڊيڪل":7601," معتبر":7602,"سڄي":7603," لاگ":7604," ٻر":7605,"ــــي":7606,"راء":7607," ٽڪيٽ":7608," درج":7609,"پيش":7610,"طيك":7611,"هينئر":7612,"اوھان":7613,"ممكن":7614," حيدر":7615," افتتاح":7616," انفرادي":7617,"ST":7618,"XNUMX":7619,"بنيا":7620,"ڊول":7621," سولو":7622," وک":7623," بگ":7624," نكت":7625," گلاس":7626,"ائمري":7627," چئو":7628," لكم":7629," الصور":7630,"توي":7631,"ـــن":7632," خرابي":7633," ڪانگريس":7634,"اک":7635,"هُن":7636,"پيو":7637,"ڊيم":7638,"ڪاني":7639,"ھاڻي":7640," مهار":7641," نجي":7642," ندي":7643," گيم":7644," ڏسان":7645," صلى":7646," ڊگري":7647," اوهين":7648," -\n":7649," محروم":7650," احسان":7651,"واٽ":7652," ادري":7653," Ch":7654," مجموعو":7655," نازڪ":7656," مئني":7657,"__":7658,"رڳو":7659," ماي":7660," فاط":7661," پيپلز":7662," موڙ":7663,"قيه":7664," پرور":7665,"اڪر":7666," ترسيل":7667," سياحن":7668," خطاب":7669," XNUMX":7670," آئوٽ":7671," ex":7672,"\"تون":7673,"حلو":7674,"حڪومت":7675,"عبد":7676,"ـت":7677," سٺا":7678," وڇ":7679," ربي":7680," نهاري":7681," قيامت":7682," بيم":7683," ڪوٺي":7684,"اهرو":7685," پنھن":7686," ڊبليو":7687," پارليامينٽ":7688,"چيو":7689,"چيني":7690,"یم":7691," وير":7692," همت":7693," نڀ":7694," شير":7695," توکان":7696," ڇڪڻ":7697," رويي":7698," ماه":7699," غي":7700," بران":7701," برآمد":7702," ليزر":7703," فرمان":7704,"واضح":7705," وٺن":7706," وٺندي":7707," پاسورڊ":7708," چهرو":7709,"؟؟؟\n":7710," اڪيلي":7711," رحم":7712," سائنسدان":7713,"\"نه":7714,"lay":7715,"ment":7716,"und":7717,"صار":7718," ڪٽن":7719," خشڪ":7720," ڇهه":7721," پراڻو":7722," ڀت":7723," ضايع":7724," ورج":7725,"مره":7726," احس":7727," اُها":7728," ديس":7729," پوندا":7730," پئسو":7731," سروي":7732," ننڍپڻ":7733," رستن":7734," پورٽ":7735,"َرَ":7736," قلبي":7737,"قرآن":7738," ملازمت":7739,"400":7740,"ھائي":7741," ڪول":7742," ڪشم":7743," آيون":7744," لاڪ":7745,"امان":7746," فعلا":7747," قيادت":7748," طل":7749," معذ":7750,"زيم":7751," ڏسندو":7752," قيمتون":7753," ڏنيون":7754," ڏنائين":7755,"ech":7756," ڪانگ":7757," آزاديءَ":7758," استادن":7759," عيسائي":7760," پيڪنگ":7761," مخالفت":7762,"ريد":7763," خلق":7764," هڪدم":7765,"نيه":7766," پيارو":7767,"سيون":7768,"منا":7769," ٻيڙي":7770," اخلاق":7771," ايپس":7772," بنجي":7773," عيسى":7774," ڪلوميٽر":7775,"يقين":7776," ٽرمينل":7777,"ٽائر":7778,"گزين":7779," نارا":7780," پوئين":7781," سيشن":7782,"هڪڙي":7783," مريم":7784," پليئر":7785," رازداري":7786,"uct":7787,"ٽيڪل":7788," کم":7789," عراق":7790,"ٽرز":7791," كر":7792,"ـــه":7793," sh":7794," خيالي":7795," شهرت":7796,"نظرات":7797," دروازي":7798," مظاهرو":7799,"نيوز":7800,"\"اسان":7801,"لهي":7802,"ڏسو":7803," جين":7804," پاي":7805,"روج":7806,"دات":7807," يالله":7808," روان":7809,"افين":7810,"سمجه":7811," ھل":7812," فائدن":7813," جڳهن":7814," نمونو":7815," تعليق":7816," حادثي":7817," اميدوار":7818," فيڪٽري":7819,"oft":7820,"صه":7821,"پاس":7822," جيون":7823," بز":7824," ٻج":7825," پيس":7826," يهو":7827," منھنجو":7828," رواج":7829," رکيا":7830,"بته":7831," تحليل":7832,"190":7833,"فارم":7834,"بعدين":7835,"جبتني":7836," بندوبست":7837," داستان":7838,"باز":7839,"ـا":7840,"فة":7841,"مها":7842," جهي":7843," جهنگ":7844," وآ":7845," انش":7846," گهي":7847," عيون":7848," فات":7849," فرين":7850," لع":7851," واح":7852," ڀٽو":7853," ڀڄي":7854,"اااي":7855,"نڊي":7856," لکين":7857," صفحن":7858," قبضي":7859," الحين":7860,"oun":7861," ڪڍڻ":7862," شكلك":7863,"يقينا":7864," °":7865," ہ":7866,"].\n":7867,"جج":7868,"سمي":7869," ڪنگ":7870,"هيلو":7871," سٺ":7872," وأ":7873," بدي":7874,"الع":7875," جوڙو":7876," منط":7877," ٽتو":7878," ڪمائي":7879,"صولي":7880," سردار":7881," چوٽي":7882,"پارٽ":7883," ٽريننگ":7884," دائري":7885,"uc":7886,"خصي":7887,"ريڊ":7888," ٿورا":7889," گن":7890," گادي":7891," عين":7892," کانئس":7893," (۽":7894," ڳائڻ":7895," واهه":7896,"ٽرڪ":7897," جنت":7898," اسٽيج":7899,"يورپ":7900," ڊاڪٽرن":7901," حرام":7902," وفاد":7903,"ڏينهن":7904," ~\n":7905," ملائيشيا":7906," چونڊيل":7907," عارضي":7908,"فع":7909," جاني":7910," واه":7911," ڪمال":7912,"اليت":7913," ويندڙ":7914," sm":7915," ڳوليندا":7916," نفسي":7917," رستا":7918," فلمن":7919," [.":7920," ڪينسر":7921," جماعت":7922," بدلجي":7923,"مڪمل":7924," ڀائرن":7925,"App":7926,"طور":7927," مندر":7928," رڪن":7929,"ياء":7930," فائن":7931," منها":7932,"ڪوٽ":7933," روزي":7934," خوفناڪ":7935," ساله":7936," ڊيگهه":7937," سنه":7938,"ڳوٺ":7939," قيمتن":7940,"لائيٽ":7941," اردو":7942," كلها":7943," for":7944," صديءَ":7945,"يارڪ":7946," £":7947," ڪتن":7948," سٽي":7949,"ــت":7950," فحش":7951,"هوء":7952,"ڪيز":7953," ڀان":7954," ورتا":7955," تعل":7956," مقبول":7957," احب":7958," گهڻيون":7959," ڦير":7960," ؟؟؟\n":7961," لائبري":7962," فلمون":7963,"ible":7964," اديب":7965," رينج":7966," فروغ":7967," ag":7968,"'\n":7969,"ian":7970,"ٻڌ":7971,"ڪلا":7972," مك":7973," بق":7974," ھتي":7975," ٿيڻو":7976,"استعمال":7977," شود":7978," پروگرامن":7979," پائيدار":7980," ^^\n":7981," ھوندو":7982," برنامه":7983,"EM":7984,"پڪ":7985,"چسب":7986," نڪي":7987,"ائگي":7988," ويزا":7989," سوم":7990,"ئيندڙ":7991," گذريو":7992," مغربي":7993,"منهنجا":7994," ملوث":7995,"بون":7996,"هيچ":7997," سنو":7998," چن":7999," لچڪ":8000,"ڪيون":8001," ڪيريئر":8002," سوين":8003,"بوليت":8004," هرگز":8005,"پريس":8006," خانداني":8007," ڏهاڪي":8008,"earch":8009," ميلاپ":8010,"سمجهاڻي":8011," j":8012,"\"پر":8013,"ra":8014,"خد":8015,"وك":8016,"ِڪ":8017,"چڻ":8018," ايرا":8019," مک":8020," کُ":8021," دبئي":8022," چنين":8023," حُ":8024," ڪرسمس":8025," ايٽ":8026," منو":8027,"اتار":8028," وٺندا":8029,"ick":8030," ڳوليو":8031," جيئرو":8032," ايجاد":8033," معصوم":8034,"موجوده":8035," مذاق":8036,"سج":8037," سڏي":8038," دُ":8039,"نيم":8040," پيپر":8041," زم":8042,"اصلا":8043," پروجيڪٽ":8044," هاء":8045," امڪاني":8046,"پريشن":8047," المهم":8048," رائع":8049," اعزاز":8050,"47":8051,"ram":8052,"ظه":8053," اجن":8054," مٺ":8055," مشن":8056," واب":8057," گائيڊ":8058," ڏور":8059,"ميون":8060," موٽڻ":8061,"سرچ":8062," ڦي":8063," ٺاهيندڙن":8064," انگريز":8065," سلط":8066," بزرگ":8067," گردش":8068," يهمك":8069,"خال":8070,"ڀرو":8071," جڙيل":8072," رَ":8073," عمري":8074," الأ":8075,"بيل":8076," مدل":8077," ظاھر":8078,"ors":8079," پئماني":8080," موقعن":8081,"ايندڙ":8082," گاڏين":8083," اھم":8084," دٻاءُ":8085,"عورتن":8086," غربت":8087," سالياني":8088," برائوزر":8089,"revious":8090," ناراض":8091,"يزن":8092,"یش":8093," سکي":8094," وڪري":8095," پت":8096," بني":8097,"لايو":8098," حديث":8099," هوم":8100," سمجھي":8101," اُنهن":8102," ڏسجي":8103,"حتى":8104," بچت":8105," صحبت":8106," سڄڻ":8107," پکڙيل":8108," عيسيٰ":8109," سگهجن":8110," پروڊڪٽس":8111,"120":8112,"ايڪس":8113,"اعلي":8114,"عع":8115,"ٻو":8116," ڪسٽمر":8117," پتي":8118," ڇڪ":8119,"راي":8120," بيٺي":8121," بررسي":8122," ڌما":8123," ڇوڪرين":8124," سمجهو":8125,"ائونڊيشن":8126," موقف":8127," بادشا":8128," انجنيئرنگ":8129," مزاج":8130," ڪٽنب":8131,"انٽرني":8132," تازي":8133," سارو":8134," وهن":8135," هئين":8136," بيني":8137," شري":8138," شفا":8139," شديد":8140," عمو":8141,"ابري":8142," جاپان":8143," ڀائيو":8144," ريسٽ":8145,"جنس":8146,"ated":8147," منتخب":8148," عادت":8149," عبدالو":8150," نعمت":8151,"اپ":8152,"ـل":8153,"مسل":8154," اڀر":8155," نامي":8156," رڙ":8157," ڏٺا":8158," تيئن":8159,"ديش":8160," الضحك":8161,"افغان":8162,"سٽين":8163," گھڻا":8164," تباهي":8165," أي":8166," بينڪن":8167," بوٽ":8168," پاؤ":8169," پئسن":8170," پلگ":8171," رابطن":8172," ڏينداسين":8173," نازل":8174," پڙهندڙن":8175,"aj":8176,"coin":8177,"ڪشي":8178,"گزارش":8179," ڪڏھن":8180," هِن":8181," انچ":8182," عڪس":8183," دون":8184," فورس":8185," منه":8186," ملندڙ":8187,"مرد":8188," بلين":8189," يادگيري":8190," مخلو":8191," موقعا":8192," پنجاب":8193,"ime":8194,"تعليم":8195," سمجھڻ":8196," Q":8197,"))\n":8198,"اعت":8199," آٽو":8200,"ليلي":8201," گها":8202," تهذيب":8203," فاهم":8204," قابو":8205,"بررسي":8206," پيشه":8207," خبرن":8208," رسمي":8209," ڇڏيون":8210," خداوند":8211," فنڪار":8212," ميزباني":8213," ـــ":8214," ad":8215,"تها":8216,"ڀلا":8217,"اتر":8218," شيطان":8219,"اهڙا":8220," متان":8221," الائي":8222," پاپ":8223,"تحقيق":8224,"َنِ":8225,"les":8226,"آب":8227,"حم":8228,"سنواريو":8229,"كرت":8230,"ڌن":8231," اجر":8232," ڪتب":8233," سني":8234," بڇ":8235," بشر":8236,"جيستائين":8237," عدم":8238," صار":8239," ايڏي":8240," ((":8241," مسٽر":8242,"ئرس":8243," دلين":8244,"خواهي":8245,"ure":8246," وحده":8247," شفاف":8248,"form":8249,"ox":8250,"،XNUMX":8251,"مفت":8252,"نم":8253," جت":8254," اكل":8255,"ريائين":8256," بور":8257," توازن":8258," معروف":8259," رومان":8260,"سٽنٽ":8261,"چيم":8262,"بود":8263," ترق":8264,"فيصل":8265," گذار":8266," crypt":8267," ڪلچر":8268,"پنج":8269," گريجو":8270,"85":8271,"TC":8272,"آء":8273,"حح":8274,"صلي":8275,"فتو":8276,"كة":8277," تخت":8278," وك":8279," حذف":8280," لآ":8281," معمول":8282," ٽڪرا":8283," وڃڻو":8284," ڏيون":8285,"ڪنھن":8286," نظريو":8287,"ـــو":8288,"ary":8289," ڏسون":8290," اسٽريٽ":8291," ننڍا":8292," جذبات":8293," جهازن":8294," پُڇ":8295," ڪڍيو":8296," <<<":8297,"مرادو":8298," ڪرنسي":8299," بيمارين":8300," ی":8301,":ههههههه":8302,"کار":8303," اذ":8304," خانو":8305," هيرو":8306," زيا":8307," بيحد":8308," سوار":8309," مشر":8310," ريپ":8311," فائرنگ":8312," ٽرمپ":8313," چئجي":8314," ناڪامي":8315," اِهو":8316," نجات":8317," تعالى":8318," ذخيرو":8319,"حتي":8320,"زاد":8321," اسٽاپ":8322,"لوا":8323," ريزي":8324,"مينان":8325," احنا":8326," نظرثاني":8327," اجل":8328,"ورنس":8329,"رررر":8330," اولهه":8331," سچائي":8332," حفاظتي":8333," سلامتي":8334," ڊوائيسز":8335," شمسي":8336," @":8337,"88":8338,"ie":8339,"ؤن":8340,"سوي":8341,"شب":8342," اِن":8343,"هيا":8344," آڱ":8345," کٽي":8346," نوي":8347,"يوار":8348,"امير":8349," فلا":8350,"روش":8351," منجهه":8352," ميٽ":8353," ضد":8354," درس":8355," ٻڌاءِ":8356," ڇڏيندي":8357,"ank":8358,"قومي":8359," صفحه":8360," نڪتل":8361," ميونسپل":8362,"صول":8363,"صدر":8364," اڇو":8365," راحت":8366," عث":8367," حاج":8368," ڪيترين":8369," پرنٽ":8370," ڪوش":8371," سوسائ":8372," غذ":8373,"منى":8374,"پيار":8375," چيس":8376," نيب":8377," ٺاهيندڙ":8378," سرگرم":8379," ٽيڪنيڪل":8380," ڏٺم":8381,"urname":8382,"ساڳئي":8383,"Previous":8384,"تِ":8385,"واب":8386," عارف":8387," خام":8388,"توا":8389," اوز":8390," سمورا":8391,"شيار":8392,"عدالت":8393,"ااااا":8394," جملو":8395," بدلائي":8396," SCL":8397," اپليڪيشن":8398," اثرائتي":8399," وڻندڙ":8400,"وزيراعظم":8401," اشتهارن":8402," سنجيده":8403,"پيداوار":8404," ايسوسيئيشن":8405," SCLNT":8406,"mm":8407,"اَ":8408," بايد":8409,"ــر":8410," ڌم":8411," چاهيندو":8412," مهينو":8413," سکر":8414," آگاهي":8415," دانش":8416," پناه":8417," سهولتون":8418," احتياط":8419,"ـَ":8420,"گاهي":8421," جدت":8422," مٺي":8423," مٽائي":8424," ڪاب":8425,"ليڪن":8426,"ميءَ":8427,"ٽيشن":8428," منڊي":8429," زوال":8430,"ادق":8431,"رفيس":8432," ڄمار":8433," داخلي":8434,"itcoin":8435," تصويري":8436," دفن":8437," مضمونن":8438," پارٽيءَ":8439," انسٽاليشن":8440," خوابن":8441," جائز":8442," متحده":8443,"شنگٽن":8444,"46":8445,"ضه":8446," جتان":8447," ڪٽڻ":8448," پگ":8449," هان":8450," فا":8451,"نيد":8452,"ائيندس":8453," ويچار":8454," ميک":8455," رولي":8456," ڀلائي":8457," ماع":8458," درآمد":8459," فائلن":8460,"itt":8461," بنائي":8462," دٻاء":8463," برطانوي":8464," لائيٽ":8465," فضيلت":8466,"IN":8467,"SA":8468,"راند":8469," مڇ":8470,"ترم":8471," ماڻهون":8472," اينڪس":8473,"ــــــــــــــــــــ":8474," لڳن":8475," وياسين":8476," ڏيڻو":8477," جنگي":8478," اطمينان":8479,"صورتي":8480," اھا":8481," آئيني":8482," آخرين":8483," ارتقا":8484,"cy":8485,"حس":8486," سجا":8487," چورس":8488," tr":8489,"لينا":8490," پاڙ":8491," ڀرڻ":8492," ڏيکاريل":8493,"app":8494,"فقط":8495,"ake":8496," عبدالوحيد":8497," {":8498,"49":8499,"أأ":8500,"حبي":8501,"دون":8502,"سور":8503,"مَ":8504,"ڀا":8505," اما":8506," آهه":8507," پبلڪ":8508," فائونڊيشن":8509," ،،":8510," قوي":8511," پوڻ":8512," ڄائو":8513,"ord":8514," بدون":8515," اينڊرائيڊس":8516," پهرئين":8517," ڪشمير":8518,"ايران":8519,"شون":8520,"کل":8521," اڱ":8522," هَ":8523," رز":8524," لشڪر":8525," ڇت":8526,"ايپ":8527," سرحد":8528," سگهين":8529," پاڻمرادو":8530," احم":8531,"تنھن":8532," مارڪيٽن":8533," زندگيء":8534," خبردار":8535," فيصلا":8536," مٿس":8537,"محدود":8538,"عالمي":8539," پھريون":8540,"واقعي":8541," ?\n":8542,"تص":8543,"جڏھن":8544,"حاصل":8545,"عڪس":8546,"ِل":8547,"ڪَ":8548," فه":8549,"داء":8550," الل":8551," سگهه":8552,"ھيون":8553,"برت":8554," رياض":8555," مقدس":8556,"ons":8557,"هونئن":8558,"rot":8559," خوشگوار":8560,"كرة":8561," منتظر":8562," چاپ":8563,"اهڙيءَ":8564," بعدي":8565," ديوار":8566," تنھنڪري":8567," تابع":8568," فاطمه":8569,"ress":8570,"شام":8571,"مور":8572,"وڻ":8573,"پلا":8574," جب":8575," رون":8576," انجي":8577," عق":8578," يسلمو":8579," پرهيز":8580," ڌرين":8581," ٽيلي":8582," ساٿين":8583,"عود":8584," چوندي":8585," ؟؟":8586," لاڳاپا":8587," اغوا":8588,"42":8589,"43":8590,":ههههههههه":8591,"ld":8592,"بلو":8593,"عك":8594," جهن":8595," تُ":8596," پايان":8597," جوڳي":8598," ڇهن":8599,"ڪومتي":8600," ڀارتي":8601," مايوس":8602,"سينو":8603," گهٽجي":8604,"شته":8605,"رباني":8606," وسري":8607," سنگاپور":8608," آفيسرن":8609," ارسالي":8610," سرگرميون":8611," سيکاري":8612," چمڪندڙ":8613," سربراهه":8614,"گون":8615," نب":8616,"قيت":8617," بالا":8618,"طيب":8619,"شادي":8620," مليون":8621,"icros":8622,"ami":8623," مجازي":8624," اختيارين":8625," مريضن":8626,"بنيادي":8627,"oy":8628,"قال":8629,"ڏهين":8630," مچ":8631," ڪڻ":8632," تبي":8633," سف":8634," سك":8635," ڪيڏو":8636," اسانجي":8637," ڪوريا":8638," فيچر":8639," هرڪو":8640," سگهيس":8641," نظرانداز":8642,"ish":8643," مٿا":8644,"<<<<":8645," Twitter":8646," سڃاڻي":8647," جذب":8648," جھڙو":8649,"كككك":8650," پناهه":8651," همراهه":8652," دفاع":8653,"icrosoft":8654," un":8655,"تصوير":8656,"گڏيل":8657,"یں":8658," جيئڻ":8659," پِ":8660,"لائر":8661,"الٽ":8662,"ائيز":8663,"هاءِ":8664," ميٽرو":8665,"ڻيل":8666," Search":8667," سکيو":8668," وڻن":8669," اڏام":8670," موڪليل":8671," اليڪٽرانڪ":8672," پڌرو":8673," ايراضي":8674,"98":8675,"ee":8676,"خاني":8677,"وع":8678," نديم":8679," شاهي":8680," حامي":8681,"ميس":8682," ريڪارڊ":8683,"زيه":8684,"ins":8685," تحفا":8686," ڦري":8687," وارث":8688," مفاد":8689," انتظاميه":8690," ساحل":8691,"ah":8692,"بى":8693,"حسين":8694,"طري":8695,"فهم":8696," جج":8697," ابن":8698," ڪتا":8699," رمض":8700," عب":8701," عزم":8702," ٽنگ":8703," اينٽي":8704," لڳندي":8705," Al":8706,"ite":8707," اڳواڻي":8708," غلطيون":8709," طالبان":8710," سراسري":8711," ڪوششن":8712,"آڪ":8713,"اگرام":8714,"جيا":8715,"ـِ":8716,"نور":8717," جَ":8718," جدي":8719," تل":8720," آثار":8721," سدا":8722," العالم":8723," ڇپيل":8724," هيئن":8725," زلز":8726," پرچ":8727," ٽولي":8728," سواري":8729," سمورن":8730,"ـــر":8731," ڪونھي":8732," بدلائڻ":8733," اسٽاف":8734," نامو":8735," مرحلو":8736,"ــــــــــــــــــ":8737," سافٽويئر":8738," دهشتگردي":8739,"آت":8740,"ڄاڻ":8741," ارو":8742," تكون":8743," بقول":8744," لاي":8745," چال":8746,"راعت":8747,"ادگي":8748," معاو":8749," ڏيندس":8750," وربي":8751,"بوٽ":8752," غيرها":8753," نقشو":8754," وچان":8755," اچان":8756," ٻوليون":8757," ڏاڍا":8758," صوبائي":8759,"ign":8760," انقلابي":8761," چئلينج":8762," ايجنسي":8763," ھوندي":8764," ضابطن":8765," ضابطو":8766," ڀڃڪڙي":8767," بيوقوف":8768," لائبريري":8769," ۈ":8770," an":8771,"less":8772,"ri":8773,"بارن":8774,"ٻيا":8775,"گرو":8776," وهو":8777," نت":8778," شپنگ":8779,"امر":8780," فال":8781," فائي":8782," ڪرپشن":8783," ڊپارٽ":8784," هيه":8785," رويو":8786,"شنر":8787," استن":8788," فيهم":8789," تناسب":8790," جملي":8791," ڳوڙهي":8792," اولين":8793,"گزاري":8794,"over":8795," خاتمو":8796," پاؤڊر":8797,"زند":8798,"ٿل":8799,"چند":8800,"ائلي":8801," لهر":8802," لهڻ":8803," قولي":8804,"نيءَ":8805,"ستر":8806,"ايئر":8807," ڀل":8808,"ڪاٽ":8809," احسن":8810," تنهنجا":8811," صحافي":8812," اھڙي":8813," حوصلا":8814," مبتلا":8815," €":8816,").":8817,"ضا":8818,"نام":8819,"پائي":8820,"ڄو":8821,"انڪه":8822," ماب":8823," آڪس":8824," آيد":8825," بك":8826," ڏِ":8827," لاڙڪ":8828," چالو":8829," حاجي":8830,"وله":8831," ڪيڏانهن":8832,"قيمت":8833," پرائمري":8834," ڪوٺ":8835," پهتا":8836," تحري":8837,"ari":8838," بلڊنگ":8839," جانب":8840," اٿن":8841,"پنھنجي":8842," صارفن":8843," ڪپڙي":8844," عدد":8845,"آرٽيڪل":8846," بغاوت":8847," حقوق":8848,"فلم":8849,"لر":8850,"وانا":8851,"انچي":8852," جستجو":8853," ڪيني":8854," بير":8855," راهي":8856," اندي":8857," شئ":8858," هڪجه":8859," ڊوي":8860," ڪيڏي":8861,"اتا":8862," ويهڻ":8863," روئڻ":8864," محد":8865," وره":8866,"پریس":8867," سمجهندا":8868," پڙهيل":8869," ڳوڙها":8870,"حالا":8871," Bible":8872," ڳاڙهو":8873," قرباني":8874," زرداري":8875," گناهه":8876,"250":8877,"56":8878,":\"":8879,"yp":8880,"سَ":8881,"سير":8882,"شتن":8883,"انٽ":8884," جسٽس":8885," هڙ":8886," رليز":8887," ڏوه":8888," حيو":8889," الغ":8890,"نيس":8891," منجھ":8892," ڪوپن":8893," مايو":8894," فيڊ":8895,"ert":8896," پرومو":8897," نيون":8898," بلڪ":8899," ادائگي":8900," ڦه":8901,"وووووووو":8902," گاهه":8903," يعين":8904,"هيهيهيهي":8905," پروسيس":8906," مھل":8907," حملن":8908," گڏجاڻي":8909," اجنبي":8910," َ":8911,"77":8912,":هههههههه":8913,"صرن":8914," تض":8915," سڳ":8916," هڻڻ":8917," حافظ":8918,"ولن":8919," شيشي":8920," مرة":8921," ٽيپ":8922," تجربا":8923,"خيص":8924," بھتر":8925," دستاويزن":8926," ٻولهه":8927," al":8928,"'s":8929,"In":8930,"SO":8931,"مائ":8932," جپان":8933," اضحك":8934," مادر":8935," مادري":8936,"ونڊ":8937," نيم":8938," عش":8939," لها":8940," قاتل":8941,"ميڊيا":8942," معقول":8943,"گيٽ":8944,"ڪاش":8945," برگ":8946," مرک":8947," خوشحالي":8948," جڳھ":8949," ڳالهائيندو":8950," رقص":8951," اڪيڊمي":8952," رحمت":8953," حتمي":8954," اسٽوڊيو":8955," Awami":8956," بزنس":8957,"بيو":8958,"تج":8959,"سعودي":8960,"شيو":8961,"ـم":8962,"يلا":8963,"ڇري":8964," جريان":8965," مسو":8966," ملاح":8967," ڪبو":8968," تأ":8969," تست":8970,"ورنيا":8971," حدن":8972," کانپوء":8973,"دوم":8974,"ميش":8975,"راز":8976,"ٽيگ":8977," روئ":8978,"درد":8979," پهتي":8980," برش":8981,"اهل":8982,"احمد":8983," دوزخ":8984," فرار":8985," لکندو":8986,"استاد":8987," بعدين":8988,"ساهه":8989,"گهٽ":8990," سپلائر":8991," زخم":8992," سهولتن":8993," رعايت":8994," art":8995,"AN":8996,"SD":8997,"gle":8998,"جيو":8999,"َء":9000," رام":9001," لاهور":9002,"هوم":9003," هول":9004," ڪندين":9005," ذمي":9006," سرد":9007," ٺهي":9008,"ماءُ":9009," سمجهن":9010,"ond":9011," اُڀ":9012,"والا":9013," وٺندڙ":9014," گروهه":9015," مڃي":9016,"ننڍ":9017," ڪراچيءَ":9018,"مولانا":9019," حڪمران":9020," Awaz":9021,"پويون":9022," فائنل":9023," سلطنت":9024," پگهار":9025,"صارف":9026,"واري":9027,"ڈپریس":9028,"ڙجي":9029,"گهو":9030," اگ":9031," آبي":9032," هجو":9033," گڏي":9034,"ائد":9035," دارو":9036," لمي":9037,"نيٺ":9038,"ستن":9039," ڌڻي":9040," ٻڌايان":9041," عليهم":9042," آرڪ":9043," مالڪن":9044," سرواڻ":9045," ساڳيا":9046," نشانو":9047," دائمي":9048," اعتراف":9049,"ww":9050,"تف":9051," راڻي":9052," عرفت":9053," هيٺيون":9054," پردي":9055," ملندا":9056,"سوشل":9057," ڊيم":9058,"پولي":9059," ٽيب":9060," فائر":9061," ڄاڻايل":9062," چونڊون":9063," حسب":9064," ڀاڱي":9065," واڌارو":9066," واسطي":9067," مائٽن":9068," سياستدان":9069,"ھڪڙو":9070," نشانيون":9071," خصوصيت":9072," ٽيوب":9073,"جسم":9074,"دهه":9075,"صحيح":9076,"كا":9077,"ٺيڪ":9078," اجا":9079," ڪجو":9080," سندي":9081," گلاب":9082,"راه":9083,"لوار":9084,"منھنجي":9085,"ناطي":9086,"اهڙو":9087," ساخت":9088," ڪهاڻين":9089," جوابدارن":9090," قانونن":9091,"مسئ":9092," طبعا":9093," تسلم":9094," مديريت":9095," پروفائل":9096,"Home":9097,"ron":9098,"أإ":9099,"حين":9100,"شكل":9101,"صاب":9102,"هيء":9103," وڻي":9104,"ياڻي":9105," حجم":9106," المو":9107,"فرانس":9108," لکن":9109,"قوم":9110," بنيادن":9111,"ings":9112," دستخط":9113," وضاح":9114," جذبي":9115," فلسطين":9116," آزمائشي":9117," ڊولپر":9118,"41":9119,"فف":9120,"پرا":9121," اشا":9122," تعي":9123," وب":9124," جيو":9125,"ارڪ":9126," رٽائر":9127," لَ":9128," طي":9129," هوش":9130,"ولڪ":9131," پيوند":9132," ميلي":9133," ٽار":9134," ريال":9135,"ـــا":9136," مارڪ":9137,"icle":9138," عمران":9139," موڪلن":9140,"ild":9141," نامن":9142," ڪالهه":9143," ايڊيٽر":9144," نصيحت":9145," پيروزي":9146," سوسائٽي":9147,"aul":9148,"ile":9149,"ٿن":9150,"چيائين":9151,"گارن":9152,"لائين":9153," ٻان":9154,"نيٽ":9155," سگريٽ":9156," ھيو":9157," باش":9158," ناپس":9159,"urren":9160," فيصل":9161," صنف":9162," عيب":9163,"ليفورنيا":9164,"نتيجي":9165," شناسي":9166," انٽرفيس":9167," ڪاميٽي":9168," ڊويزن":9169," on":9170,"ضابط":9171,"عث":9172,"کيو":9173,"یل":9174,"انيا":9175," جهو":9176," اتو":9177," اگه":9178," آئر":9179," شھ":9180,"ائنو":9181," لاس":9182," لڏ":9183,"داي":9184," جاپاني":9185," ميري":9186," ورهائي":9187," لواز":9188,"مارڪيٽ":9189," بچاء":9190," بنات":9191,"ice":9192," صلاحڪار":9193," ڪامرس":9194," گروپن":9195," ڪپڙو":9196," روشنيءَ":9197,"انتظ":9198," نياز":9199," نظريي":9200," سائٽ":9201," زنجي":9202,"بخش":9203," اميدوارن":9204," ڪروڙ":9205," انشورنس":9206,"\"اهو":9207,"ax":9208,"طرز":9209,"پنهن":9210,"کت":9211,"ڪئين":9212," وهم":9213," وجه":9214," کرد":9215," الان":9216,"قيقي":9217,"اڪا":9218," برعڪس":9219,"جنسي":9220," ناهيان":9221," پرواهه":9222," يوسف":9223," اسپيڪر":9224," be":9225,"ڀرائي":9226,"ٽيوٽ":9227," مڃڻ":9228,"ليفون":9229,"ليويزن":9230," مصنوعي":9231," گذرڻ":9232,"انجام":9233," ويڙهه":9234," مهارت":9235," مئنيجر":9236,"طا":9237,"نق":9238," مارو":9239," هِ":9240,"روڪ":9241," لڙ":9242," طلع":9243," ڊين":9244," ڪيفيت":9245," ڀائر":9246," اوي":9247,"سماجي":9248," ليڪن":9249," ڄام":9250,"هونءَ":9251," An":9252," هٿان":9253," سنڌو":9254,"خيلي":9255,"اضافي":9256," ولد":9257," حياتيءَ":9258," ڌيءُ":9259," زرعي":9260," گلوبل":9261," پورهيت":9262," 🙂":9263,":$":9264,":d":9265,"بورڊ":9266,"سٽي":9267,"ـٍ":9268,"ٽرين":9269," ماما":9270," پڪو":9271," بان":9272,"جيد":9273," عاج":9274," دخل":9275," لامحدود":9276," حالا":9277," اسوي":9278," بهتري":9279," سگھان":9280,"اتن":9281,"ازا":9282," غلامي":9283," غالب":9284," ملهايو":9285,"ختياري":9286," ورتل":9287,"نوجوان":9288," جناب":9289," تحياتي":9290," جمعي":9291,"شاپ":9292," ديگري":9293," سائيٽون":9294," خوبصورتي":9295," نيويارڪ":9296," ڳوٺن":9297," اونهاري":9298,"ـــــي":9299," ڪارپوريٽ":9300," ڪارخانو":9301,"انٽرنيٽ":9302,"01":9303,"66":9304,":ههههه":9305,"آءُ":9306,"ئم":9307,"خان":9308,"صن":9309,"مِ":9310,"ــل":9311,"امت":9312," ٻاھر":9313,"اسڪول":9314,"ڪيءَ":9315," هنر":9316," يت":9317," رواني":9318," ماشاء":9319," اوسط":9320," ملتوي":9321," درجو":9322," Ar":9323," تقاض":9324,"rom":9325," مٿو":9326," وسيلا":9327,"شمول":9328," انتظاميا":9329," شوقين":9330," ڇپائي":9331,"آخرين":9332," پيڪيج":9333,"ٿوري":9334,"ڌار":9335,"یر":9336," ڪلين":9337," تذ":9338," سس":9339," خيا":9340,"نيچر":9341," يعنى":9342," بيس":9343," بيٺا":9344," ڪمشنر":9345,"گرد":9346," ريسرچ":9347,"پوزيشن":9348,"نڊا":9349," عملدارن":9350,"خوب":9351," Ad":9352," Sp":9353," پڇو":9354," HD":9355," نفسك":9356,"imp":9357," پھرين":9358," يعطيك":9359,"خلاص":9360,"يقينن":9361,"جت":9362,"سافٽ":9363,"شاهي":9364,"ـُ":9365,"كب":9366,"معني":9367," ممت":9368,"هني":9369,"ئيٽ":9370," انگل":9371," لُ":9372," ليا":9373," لڏي":9374," اله":9375," پرائيو":9376," معطل":9377," وڃائڻ":9378,"درخواست":9379," سمورو":9380," كانت":9381," ورهيه":9382," ٻڌڻي":9383," تبلي":9384," امارات":9385,"ics":9386," بحري":9387," Bl":9388," سمجھيو":9389," وحدت":9390," ٽتوٽ":9391,"hy":9392,"عون":9393,"ٻر":9394," پايه":9395," هوشيار":9396,"هادت":9397," ھدايت":9398,"اهد":9399,"ark":9400," راڳ":9401,"بارٽري":9402," نقش":9403," آمريڪن":9404," همٿ":9405,"شمند":9406," پالتو":9407," مائٽ":9408," رشتو":9409," حاڪم":9410," ٪":9411,"):\n":9412,"64":9413,"ER":9414,"اذ":9415,"نڍ":9416,"هِ":9417,"انز":9418," جِي":9419," ڪٽي":9420," سڪون":9421," وصولي":9422," کٽڻ":9423," نانگ":9424," اسسٽنٽ":9425,"ابن":9426," المر":9427,"سيس":9428," ميڙ":9429," ضمير":9430,"مواد":9431," هلڪو":9432," پاسپورٽ":9433," ديد":9434," يونيور":9435,"ورنٽ":9436," لائيو":9437," ڀرجي":9438," لنڪس":9439," ميوزيم":9440," ٻوڏ":9441,"ations":9442," ڪھڙي":9443," رمضان":9444,"600":9445,"آهنگ":9446,"بب":9447,"جلس":9448,"ٹر":9449,"گال":9450,"😂\n":9451," تارن":9452," بول":9453," ڏجي":9454," حڪومتي":9455," ايسٽ":9456,"ستگي":9457," ڳري":9458," ڀين":9459," هئائين":9460," راجا":9461," أخ":9462,"تاج":9463," اسٽين":9464," بوڪ":9465,"ash":9466," سنگت":9467," News":9468," يارڪ":9469," انڊين":9470,"یکس":9471," مينيجر":9472," ago":9473,"nect":9474,"جديد":9475,"حك":9476,"درا":9477,"طة":9478,"قين":9479,"نان":9480,"ُل":9481,"چڱو":9482," مدار":9483," مٽيءَ":9484," ستن":9485," وڙهي":9486," شنا":9487," قاضي":9488," صادق":9489," معنا":9490," ٽهڪ":9491," ٽڪرو":9492," ڪنن":9493," دوره":9494," امور":9495,"ااااااا":9496,"ator":9497," ظالم":9498,"ical":9499,"oogle":9500," تشخيص":9501," اِها":9502," رجسٽرڊ":9503," تقريباً":9504," تسلسل":9505," مشاهدو":9506," لچڪدار":9507,"800":9508,"ber":9509,"سول":9510,"صاحب":9511," مرو":9512," هاڪ":9513," شهن":9514," شفت":9515," چپن":9516," حيا":9517," لِ":9518," قدي":9519,"داس":9520," بيگ":9521," ڪمرو":9522,"برچسب":9523,"موليت":9524,"نڊو":9525," چوٿون":9526," اُھي":9527,"واع":9528," بدترين":9529,"ace":9530," نسلن":9531,"old":9532," Ex":9533," ايڪٽ":9534," رضا":9535,"upp":9536,"بنا":9537,"جهو":9538,"ڪال":9539," تط":9540," آسم":9541," بدو":9542," نخ":9543," ليو":9544," قريب":9545,"اسه":9546,"هاا":9547," ڀڄ":9548," اوپن":9549,"سمين":9550," مشا":9551," پارٽن":9552," لوڻ":9553," افسان":9554," ڪوششون":9555," حقيقتن":9556," منصوبا":9557," مزدور":9558," *\n":9559," ڳڻتي":9560," بلوچستان":9561," لميٽيڊ":9562," as":9563,"ps":9564,"حصو":9565,"طرف":9566,"كز":9567,"مة":9568,"وفاقي":9569," اجي":9570," تجي":9571," آله":9572," عظ":9573,"يڪٽر":9574,"لود":9575," پوڙهي":9576," اخبارن":9577,"باره":9578," Sh":9579,"مسٽر":9580," بينڪنگ":9581," سپاهي":9582," ^^":9583," کلڻ":9584," گهريلو":9585," نسبتا":9586," غذائي":9587," en":9588,":ههههههههههه":9589,"Bet":9590,"ey":9591,"سائنس":9592,"شتو":9593,"غا":9594,"وچ":9595," تغ":9596," آري":9597," وصل":9598,"الوي":9599," قادر":9600,"ميان":9601," پيسا":9602,"جوز":9603," زباني":9604," معائنو":9605," بيروز":9606," سمهڻ":9607," برابري":9608," باضابط":9609," پروٽو":9610," غيره":9611," ڄاڻايو":9612," ٺاهه":9613,"بدقسمتي":9614," طبق":9615,"لعب":9616," ٻوٽي":9617," بنايو":9618," سنڀالڻ":9619," اٽلي":9620,"ترجمو":9621," حيدرآباد":9622," small":9623,"96":9624,"AT":9625,"te":9626,"ثا":9627,"صلى":9628,"فور":9629,"ڙهن":9630," هائي":9631," بائ":9632," نز":9633," نگاه":9634," شخصي":9635," چَ":9636,"دوا":9637," ميمڻ":9638," كلم":9639," ريڊ":9640,"موري":9641," ڊيمو":9642," ٽيمن":9643," ٺاهيا":9644," dis":9645," سينگار":9646," عالمن":9647," مجلس":9648,"سڀئي":9649," هُئا":9650,"ions":9651," ويجھو":9652,"ـــــــــــــــــ":9653," شويه":9654," سهڻو":9655," سستو":9656," پروفائيل":9657," منسوخ":9658," ڀوڳ":9659," ترقياتي":9660," ڪابينا":9661,"57":9662,"ei":9663,"ire":9664,"سفر":9665," مجر":9666," ميرا":9667," سيو":9668," کائيندا":9669," لاڏ":9670,"امري":9671,"داع":9672," طو":9673," ڇي":9674," موزون":9675,"ھيل":9676," پردا":9677," پراس":9678," سرانجام":9679," ظهور":9680," آڻيندو":9681," ڏياريو":9682," رڪنيت":9683," اثاثن":9684," فاتح":9685," نامناسب":9686," א":9687," ځ":9688,"شما":9689,"عشق":9690,"يش":9691," ڪيڪ":9692," بضحك":9693," لعن":9694,"ابندي":9695,"هرا":9696," پيڊ":9697," يآ":9698," هيچي":9699,"متن":9700," مدري":9701," وانگي":9702," ڄاڻان":9703,"ايتري":9704," گراف":9705," صنعتن":9706," صوبن":9707,"حقيقي":9708," شكلها":9709," اسپيڊ":9710," وهڪري":9711," ڪئناڊا":9712," ميڪسيڪو":9713," استنبول":9714,"قم":9715," مئل":9716," نِ":9717,"ليک":9718," گرف":9719," ياري":9720,"ٽيٽيوٽ":9721," زراعت":9722," ميه":9723," وڃون":9724," ذا":9725," مقبوليت":9726," ليڊر":9727,"عوامي":9728," گهٽائي":9729," لفظي":9730," علائقا":9731," by":9732," Whats":9733," پابنديون":9734," ونڊو":9735," ڀليڪار":9736," حبيب":9737," آزمائش":9738," رسيد":9739," اڀياس":9740," هٽائڻ":9741," ڳنڍيندڙ":9742," ٿورڙي":9743," or":9744,"معي":9745,"پاسي":9746," مجن":9747," سٿ":9748," پائپ":9749," کاتو":9750,"الك":9751,"اڻان":9752," يجي":9753," ذائ":9754," برباد":9755," ورت":9756," اڳڪٿي":9757," فرنيچر":9758," اخوي":9759," لوگو":9760," نيڻ":9761," that":9762," نيوي":9763," گمرا":9764," هدايتون":9765," وهڪرو":9766,"جهان":9767,"حنا":9768,"قف":9769,"قبال":9770,"َّ":9771," مكان":9772," تجنن":9773,"هنگي":9774," پائو":9775," انٽر":9776," عروج":9777," ڏات":9778," ڏسن":9779,"هانت":9780," هنگ":9781," هنيو":9782," وڌندي":9783," ڪوڪيز":9784," رومن":9785," روانا":9786," مسڪين":9787," مقناطي":9788,"رحال":9789," ٽيليويزن":9790," تحفو":9791," پڙهندو":9792,"ضحكت":9793,"فوتكم":9794," سيڪنڊن":9795," افعال":9796," پيرس":9797,"ows":9798," وَرو":9799," ايڊيشن":9800," ٺهرايو":9801," بالغن":9802," صدارتي":9803," تبليغ":9804,"\"\"":9805,"900":9806,"ئجي":9807,"اذا":9808,"دورن":9809,"سِ":9810,"كري":9811,"چنڊ":9812," جاب":9813," جيڪر":9814," کپ":9815," لڪي":9816," نهاريو":9817," زمري":9818," ويسٽ":9819," لڳاتار":9820," فرمائي":9821," لکت":9822,"ating":9823," يوناني":9824," ارد":9825," تشريح":9826," ووڊ":9827," سستا":9828," اوچائي":9829," بندوق":9830,"ئڪٽري":9831," سالگره":9832,"08":9833,"ئِي":9834,"تَ":9835,"دعا":9836,"علوم":9837,"پڇ":9838,"پول":9839,"ڍا":9840,"ڙيا":9841,"ڪنگ":9842," جلو":9843," هك":9844," هدف":9845," بشمول":9846,"ليسي":9847," تيستائين":9848," فنا":9849," هوسٽنگ":9850," الث":9851," پرستي":9852," ٽپ":9853," ٽائون":9854," سوٽ":9855," ضم":9856,"اليه":9857,"جاهه":9858,"ong":9859," امڙ":9860,"ڊيٽا":9861," اجت":9862," وساريو":9863," اٿار":9864," سُر":9865,"گاهن":9866," لاڳاپو":9867,"ocurren":9868," پروسيسر":9869," وڙهڻ":9870," knowاڻون":9871," ڊپارٽمينٽ":9872," all":9873,"TM":9874,"آف":9875,"لڻ":9876,"ڀارت":9877," اڏي":9878," تدري":9879," دخ":9880," چاه":9881," چريو":9882," يسو":9883,"سيع":9884," منهم":9885,"اتين":9886," هير":9887," ميگ":9888," ڀٽائي":9889,"صوف":9890," واپارين":9891," فونز":9892," الاس":9893," سينسر":9894," حقيقتون":9895," آخرت":9896," الحمد":9897,"معلوم":9898," پُٽ":9899," ڪالم":9900," هفتا":9901," درستگي":9902," مشكور":9903," هٽايو":9904," درياهه":9905," كلامك":9906,"خالد":9907," •":9908,"نف":9909,"❤️":9910,"انوي":9911," آد":9912," آجي":9913," ناري":9914,"ليڪس":9915," خخخخخ":9916," چشم":9917," ڪردارن":9918,"يڪيو":9919,"ــــن":9920,"راحة":9921," پوڄ":9922,"اهڙن":9923,"ink":9924," نوٽس":9925," ادامه":9926," ديدار":9927,"180":9928," سگھيو":9929," IP":9930," معاون":9931," جذبو":9932,"ڪهڙي":9933," لڪير":9934,"اڃان":9935," اليڪٽرڪ":9936," منسوب":9937," مخلوق":9938," لوازمات":9939,"59":9940,"AS":9941,"أل":9942,"ٽڪي":9943,"چل":9944,"ڪيا":9945," عص":9946,"امد":9947," فهم":9948," ،\"":9949," ايون":9950," موتي":9951," يد":9952," --":9953," برڪت":9954," سرخ":9955," اڳئين":9956,"erm":9957," باھ":9958," لوهه":9959,"زاء":9960," نقطه":9961," تاثر":9962," يونيورسٽيءَ":9963," اختياري":9964," ديوتا":9965," پُر":9966," ايڪشن":9967," گرفتاري":9968," انگريزيءَ":9969," نڪرندو":9970," پيامهاي":9971,"وقتي":9972,"52":9973,":هههههه":9974,"ديات":9975,"ساري":9976," مڪي":9977," ڪامل":9978," ڪشش":9979," ويڪس":9980," هفتو":9981," فئڪٽري":9982,"راقي":9983," ڳچي":9984," شيڊول":9985,"فيٰ":9986," ريس":9987,"۔۔\n":9988," وانت":9989," قومون":9990," نقشي":9991," جمال":9992,"شاع":9993,"جبني":9994," اسڪالر":9995," ڏاڏي":9996," يونان":9997," بچاءُ":9998," ڳولهي":9999}