#version: 0.2
  t
  a
h e
i n
r e
o n
 t he
  s
e r
  w
a t
e n
  c
o r
i t
e d
a n
in g
  o
  f
i s
  b
e s
  p
a r
 t o
n d
. 

a l
o u
  in
  h
  m
a s
 o f
  d
 a nd
i c
l e
 t h
o m
i on
i d
i l
en t
  l
  re
s t
v e
  n
o t
 b e
  g
  e
l y
u t
a y
  on
a c
i m
r o
a d
' s
a m
 f or
  he
e t
u r
e l
i g
  S
o w
o l
 th at
v er
  is
 s t
i r
  I
T he
e c
u s
t er
it h
  C
  M
  it
  A
  y
 w h
 w ith
 w as
 a s
at ion
c e
il l
  B
 a l
u n
  "
 a n
 w e
er s
 a t
l d
t h
r a
  T
s e
u l
r i
k e
  P
 h a
a g
 s a
an d
h t
m ent
c h
es t
 c on
he r
p p
at e
, "
c t
i f
o re
r om
re s
  r
 y ou
u m
  R
  H
 sa id
  D
 c om
e ar
o p
or t
 a re
 h is
  v
e m
 ha ve
it y
a in
o c
 h as
o d
e w
  G
  N
 f rom
2 0
 s h
ar t
o s
a b
 e x
  W
re d
es s
 c h
  L
 b y
an t
is t
ou ld
i ve
u st
 p ro
q u
ig ht
  le
u p
  F
 d e
 n ot
as t
 s e
en d
al l
  -
i es
ac k
ou r
  J
i a
 p l
  j
a k
 s u
ou t
n t
 g o
 a b
  E
 th is
ar d
 s p
  or
ec t
i v
o st
i al
  U
. "
r ou
u d
om e
 wh o
" :
 he r
 w he
 w ill
 the y
g e
on g
 w or
o k
 the ir
' t
 b ut
  k
f f
el l
." 

ic e
ic h
in e
 o ut
  K
0 0
 h ad
id e
e p
r y
 c an
 a d
  (
 y ear
 be en
  O
f ter
 s he
a p
 d o
g h
an s
al ly
 in t
c c
  up
 of f
on e
im e
ag e
ou s
u re
 c l
 n e
 al l
 a g
  The
ion s
 m e
 we re
  un
s o
u b
u nd
i e
i p
 m ore
at ed
am e
 ab out
 in c
 a fter
u e
m er
t her
ay s
 wh ich
i ke
b er
a re
 ex p
a ke
or d
ar y
i an
 al so
 on e
 p e
20 2
  us
 o ver
 s o
ver y
ig n
on d
or m
  en
ac e
  im
 com p
op le
id ent
": "
in d
 l o
 re s
 con t
ou nt
i le
 w ould
ac t
 p art
 it s
res s
 re p
 pe ople
i re
I t
 S t
v en
ir st
 p r
ic k
 C h
ic t
 m an
 l ike
 whe n
an ce
 p er
w o
 t r
 re c
ow n
re e
a v
 j ust
ol d
as s
p t
en ce
it e
 d is
ul t
 p ol
 th an
ation s
l o
ar k
," "
 m y
 wor k
is h
 a pp
 n ew
 the re
o se
d ay
he d
f orm
 t ime
 s c
ab le
 be c
le ct
oc k
 a r
um p
 the m
  qu
a il
 a cc
n ing
 int o
T h
in k
 k n
i b
e re
l l
a us
u c
 h im
 g et
 f irst
en s
ou nd
e k
 o ther
am p
il d
o g
  ro
 s ome
ac h
  V
 t wo
as e
 wh at
ic al
 at t
I n
 pl ay
in t
re at
or s
n e
i z
 c ould
ad e
r it
ub l
  '
 p re
 im p
 T r
m ed
 o ur
 b ack
 t e
an c
 you r
w n
H e
 ag ain
r u
an g
 an y
 c o
 year s
1 9
 ad d
n g
it ion
 d ec
i ous
ing s
l ud
t y
 a ct
ol l
  if
a w
 l ast
rou nd
or y
 n o
w e
l and
  und
er v
ig h
aus e
 f e
 a m
at es
 s ec
f ore
ur ing
p e
ot her
it t
 in v
  Y
ur n
res ident
p s
 b o
 T h
a x
ve l
 n ow
c o
 inc lud
 h ow
o v
ment s
en c
 be t
f t
is s
 Tr ump
 d id
W e
id th
at er
w idth
al s
 sh ow
 com m
 und er
 su pp
ver s
ver n
h ing
on s
 w ant
l i
r is
 c ount
ak ing
 I n
 we ek
B ut
 be fore
 b r
 m on
 re m
 f in
 o p
 be ing
 ne ed
. .
ubl ic
{ "
s s
ation al
if e
o int
x t
' re
il y
 whe re
ar g
at ing
 e very
 st ate
 on ly
 d es
in ce
v ent
at h
er t
ou gh
 le ad
a h
f ul
m an
us s
g u
 th ink
 lo ok
ro w
 I s
 rep ort
 t ra
o b
u ch
o ve
 bec ause
ou n
rou gh
1 0
 m ost
re n
a z
al ity
t ing
 s ay
 f am
 in ter
l es
 again st
 N ew
it ies
 con s
 m ake
 e ven
is e
f it
o od
os s
 c all
 the n
 kn ow
 e m
as ter
i ed
  end
 wh ile
 re g
it ed
 m in
 e lect
 a c
w ard
 b l
el f
 to ld
 go vern
20 1
 in d
if f
 he l
ers on
g ht
 I t
a ut
u es
 e ar
 mon th
 th rough
 th ree
  ra
l ed
 m ed
 d own
he n
an k
 d on
 w in
 st art
v ed
a red
i ew
h ip
r am
 m ade
as on
 l ong
 re t
ri b
 de f
 H e
 d uring
al k
 w ar
a ir
 go ing
 con f
 w ell
  ke
ot e
c om
ill ion
 U n
 b u
g g
d u
Th is
' ve
 r ight
u k
ent s
 te am
 c r
 s ur
 se e
 man y
ra el
 s et
an y
e e
 f l
p h
ot h
 off ic
 s ays
} ,
i x
 w ay
}, {"
as ed
o ol
v ing
  $
 as s
  very
5 0
 th ose
ou se
 o wn
 re l
er ing
 c ent
 a round
3 0
 hel p
? 

 h ome
or k
 sh ould
w ay
a u
 d ay
n er
 c ar
al th
00 0
1 2
' m
ter s
  £
at ch
 res p
 supp ort
 ch ild
an ge
 m uch
ot t
as h
oll ow
 t ake
 h igh
r ong
 govern ment
at ive
 s ign
o ot
 w om
ro ss
 s ince
im es
 includ ing
W h
our t
 st ill
le t
 the se
p l
e ver
 p h
at her
ord ing
et s
 go od
mer ic
u res
on t
ect ed
ul ar
/ /
 L e
- b
: //
t ps
 m ay
ow er
ic s
c ed
he s
 M r
 d iff
4 5
ht tps
e red
g an
n ed
o y
 s m
 l aw
p r
 f ound
 Is rael
 wor ld
 in s
A nd
 r un
h n
en er
1 5
1 7
we en
am es
 I nd
l ing
ib le
 inv est
iv es
med ia
le g
i el
if ic
em ber
a j
- t
S he
at t
id en
u al
 count ry
 cont in
 p oint
 f our
 re ally
om et
 g u
 f ollow
 F r
 su ch
4 0
 l ife
s on
 A meric
i k
r ic
 t er
. uk
. co
 for mer
il ity
 bet ween
6 0
b le
 fe el
 ha pp
ad y
ag es
" I
ic es
r c
 c amp
a im
 s erv
is ter
it al
  ent
- y
 p resident
 be l
r at
 s er
 c ap
al e
le ment
is ed
du ct
and s
a ve
 fam ily
ire ct
m s
 add ed
 re f
 t ri
 b ig
ul l
 sec ond
 do es
g et
s rc
l ock
p g
1 8
s h
 le g
. j
. gu
 S h
 in f
.j pg
p er
.gu im
 e ff
ou th
 p erson
m in
is ion
 c ol
 pol it
 p ublic
c on
c er
 p ost
 c are
 M ar
l ine
re t
-y ear
y s
 he ad
 c le
 an n
 g rou
1 1
- f
 B iden
 H ar
qu ality
 b us
 R uss
ri end
 p ut
 g ame
 le ft
e b
in a
 pro v
The y
 is s
 f il
 S c
 g ot
 an other
v es
 s l
 att ack
 g r
 de p
 m il
 J o
 cl aim
od y
n ess
en e
 pr ot
 s y
ut e
m aster
 as k
ist s
 tr ans
i er
 U S
 b est
 ne xt
 l oc
is hed
es p
e x
 st ud
aut o
 A nd
 A l
The re
in ess
 b oth
 s oc
 pl an
ch ool
iel d
 rec ent
 com e
/ im
m ax
 d el
 d et
t on
u ally
ial ly
 f ar
 ex t
/ master
u ro
 o pp
form at
in es
 op en
 m ark
& s
/im g
& fit
& quality
& auto
= max
= format
? width
red it
 s omet
pp ed
or n
ou ght
u g
ant s
) 

 l ot
 he alth
 A r
/ media
e f
re m
 c he
i o
 s ame
em oc
 su b
 to o
 c ur
s elf
 se ason
 sp e
 n um
j ect
 S p
 e vent
k ra
 p ass
 n ear
 d irect
20 0
 f r
ur y
uc k
om m
ur s
in s
 f ind
r al
< /
b e
A s
 in st
1 4
 pl ace
ak es
 ne ver
w ays
ut h
it s
i vers
b ers
a ign
8 5
O n
enc y
' 

ir d
r ation
 to p
a f
 p ri
 m em
ort s
en se
ol og
v ious
 W h
 acc ording
v iew
er i
ion al
 P resident
ec ut
 sp ec
 t ry
 g reat
 d ays
 diff ere
th ing
 m illion
8 0
s ide
 he re
en g
 offic ial
 v ot
c es
d d
 camp aign
re nt
 R ep
 comm un
 p ay
2 5
 st ar
ie f
 b re
iv ing
 med ia
one y
 ad v
1 6
 U K
 p res
 child ren
2 4
. S
- c
i red
 inc re
 pol ice
is m
 wom en
c k
u red
in ed
 us e
 B ut
 rem ain
 re st
 U kra
con om
ter n
 o b
- old
 p rom
 c ourt
 elect ion
 k ill
al d
 ac ross
 f ac
 a ir
 exp l
 v is
c ess
 part y
 f ive
 d ri
aj or
 comp any
- p
 R e
ne y
 f ew
 m iss
g y
 c ase
 n ight
 g ener
 l a
Th at
 did n
 w r
 re le
 w on
 us ed
b r
al f
t en
 s chool
 ke ep
 se en
.. .
- s
 a way
 c re
 P r
 to ok
 s im
 bus iness
 grou p
g ed
ar ge
 be h
itt le
os ed
 month s
 E uro
 m ov
vel op
) ,
 you ng
emoc rat
p le
 e l
 W e
id ay
 al ways
 call ed
or th
ate ly
Y ou
 l ater
  Z
d er
 ar t
 B l
 c ost
 th ings
 somet hing
 r is
 de b
1 3
our s
 c ame
 report ed
 f riend
 h and
 M in
ar ing
 re al
H ow
 h op
 m om
n es
 res ult
i et
 t urn
 dis c
 E ng
 e conom
at ur
ce pt
 m ight
 B rit
 h ard
 bel ie
 ret urn
 s k
st em
 exp eri
od el
 a v
 t alk
 p os
ic ally
 a ff
 g row
 s ix
d uc
 mil it
ag ue
 bu ild
 soc ial
 p ower
 st r
 with out
 pro g
c hed
 qu est
h am
if t
 m ajor
 ann oun
I f
us ed
i ver
A n
 all ow
l ess
ru ct
 m et
 rec ord
F or
' ll
ur ity
 Un ited
 w ent
e le
 lo ve
an n
 re qu
end ing
r ist
u ed
 s w
 d em
 f oot
 un t
 p ast
3 5
 bet ter
 l ittle
 part ic
le y
 differe nt
 f ore
 p op
 st re
 app ro
 e ach
2 2
re ady
st er
os p
 m ove
 d ist
ri es
 imp ort
 his t
 me et
ere st
 f act
 re ce
 al ong
 S he
 b ro
 ha ving
ain ed
i ans
 j ob
C redit
ak en
i ent
 st and
a ff
a pp
b all
 happ en
 Y ork
 e v
on y
 D emocrat
 de velop
 p ress
 v ict
 p oss
 m aking
 h um
id ed
 re ve
S t
 m oney
lo y
W hen
in al
iv en
 op er
o ber
 al ready
9 0
re nd
ain t
 pro duct
 l ess
 c ity
 sy stem
  [
 polit ical
 sa f
 Rep ublic
. '

ar m
i ol
 de al
at s
 de ath
e ad
el t
  est
en n
 ch ange
 cle ar
  ve
' d
 m us
 v ide
 pol ic
are nt
 le t
 fin al
 num ber
b y
 s ing
 work ing
 per form
 wr ote
 unt il
o ok
t he
- d
re st
re en
 M c
 cur rent
az a
ac y
 c or
 in j
 new s
 A n
he ad
 w ater
c ent
 ear ly
at a
iv ed
au gh
ert ain
 o ld
ar s
p ort
 m en
 M ay
 int erest
an e
un e
 C l
 inter n
 c rit
ut es
2 6
p ect
ab ly
uth or
y ing
2 7
ot s
 b all
ut ion
 s it
 al leg
at ter
 Euro pe
 st ri
 v iew
g er
 s ent
 inf l
 h ost
S o
 f ull
am ent
 t imes
" The
 f und
- m
 s um
 loc al
2 8
  X
 th ought
 cont ro
 bec ome
 le vel
 con d
 C ar
3 3
 A m
 ab le
 invest ig
cc ess
  ed
in ing
 se em
 milit ary
ec h
r on
 p ot
anc es
ent ial
 con cer
 c ut
r act
 P h
 c ou
it ing
 ex c
1 00
b s
a i
 follow ing
n ce
B C
 th ird
 s ide
 m ust
 sm all
 pre vious
id d
 t ell
 Har ris
iz ed
at ure
 Ukra ine
li er
b lock
on ald
 ask ed
 app ear
ward s
em pt
" We
 t est
or ld
 cl ose
 f ur
as es
 ch all
 H ouse
 say ing
 S outh
 mem bers
 state ment
 t ax
e g
o x
 Ind ia
 com es
 Americ an
 New s
r ict
 or gan
ir l
 wh y
ort un
 h alf
 ch ang
 P al
ivers ity
 d ra
4 7
 h it
 m ar
end ed
m p
 fil m
he l
 G aza
 h ouse
 h old
ut ure
 J an
 f ood
pl ay
ard s
 to get
 le ast
 toget her
he re
 for m
 e ver
er al
 to day
 f ace
art ment
al ed
 of ten
 S und
 g ive
 Jo hn
r an
u ly
 p ar
 l ist
 v iol
ond on
ent ion
 am ong
 se ver
ond ay
 sh ort
 kn own
 C ity
- w
 t aken
id ence
 get ting
 dec ision
us h
 pro cess
  Q
am s
 f ree
e xt
 A s
 Th is
 P ar
 inv ol
 import ant
 whe ther
m ost
 d ue
 app e
e v
it ions
is on
 A f
 th ing
3 9
el s
 comp et
id er
if ied
 o pt
 n ational
 ag o
st and
 t aking
 ch arg
 su ccess
 M onday
 a uthor
 f ight
 B e
 B r
- l
 l ine
- h
 bo ok
ri ed
3 6
i or
 em p
 f uture
 l ive
 play ers
re w
 do ing
 ris k
 in form
 j o
 sever al
 g ames
 g iven
 p o
 ser ies
 st rong
ues day
g o
 Sund ay
al es
 la un
et ty
 Eng land
ect ion
 vide o
 ch ar
 me an
 Fr iday
 O ct
 like ly
 f ans
 C omm
 man ag
gg est
 c and
 start ed
How ever
A t
 e as
" It
 W ed
c rib
ad es
 lead ers
 mom ent
is ing
 C o
 cl ub
 L ondon
 Russ ia
i um
 b it
 pro ble
ep t
 su ggest
2 1
  ide
" 

 fur ther
 en ough
O ne
 S e
 th ough
 T uesday
 r ul
 p at
 pro p
pp ing
ec hn
 f ail
 A ust
 Y ou
 mark et
 s ol
 f oc
 exp ected
 d one
 v al
 an t
 sec urity
 In st
or ies
 se x
le ments
 H am
ore d
 pro s
le x
 G o
 acc ount
 h ig
 Ch rist
 official s
m y
 w alk
up er
 on ce
  ri
 con st
 rel ations
9 9
nes day
 W est
 d r
 k ind
 The y
 t arg
ubl ished
 week s
 l arge
ro p
id es
at or
 g l
 S w
 are a
 beh ind
 Wed nesday
 w rit
im ate
 re ad
itt ed
 eff ect
 f all
 br ing
2 3
 c ele
in ation
A l
 does n
urs day
 pro f
iss ion
Wh at
u ge
 th reat
) .

 look ing
 cand id
 ch o
 bre ak
on es
 h ours
t s
 contin ue
ir m
 A t
 ro le
og ra
 s us
 play ed
in ian
 cl ass
iz e
 announ ced
 P ol
 su re
& d
 des ign
&d pr
 com ing
2 9
 Th ursday
A fter
er n
 prog ram
 y et
4 8
ord er
 d ata
 sh ared
 A d
lo b
 sign ific
\ "
al if
 m other
 C ol
C h
 F or
 try ing
y l
 c ust
 com ment
 comp let
 w atch
 N ational
as hing
 with in
 off ice
" },{"
it ive
 commun ity
 en g
w h
 h osp
 other s
f or
 P ro
 he art
 t reat
 wom an
 ar rest
l or
 f ire
 us ing
 ind ust
re ed
id s
ill i
 hum an
 W orld
rem e
 c oun
al y
 st ory
e an
 b ody
 Ch ina
 partic ular
 experi ence
 kill ed
 l and
 inter view
 hist ory
enc es
 Min ister
 spec ial
 m ess
ict ure
ens ive
o on
 o cc
4 9
ed eral
her n
n s
 f un
ap s
ight s
 St ate
 point s
 per cent
 imp ro
 pri v
19 9
 t echn
 e qu
 L ab
M r
 imp act
Wh ile
 hop e
b b
ac ed
min ist
 w a
 h om
 be g
av ing
 st ay
atur day
 att empt
 fr ont
d e
st rong
 sa w
 acc ess
a e
ro wn
 re se
f ield
 al most
o ff
 v ote
 b ill
l ic
as k
ty pe
 quest ion
u ary
 p arent
res ent
ress ed
ab ility
 en c
 ear lier
c ast
our se
e or
 ph ot
 en s
 de ep
c hes
r ing
 n ame
 Russ ian
 b ene
 min utes
 st aff
 act iv
 care er
 signific ant
a id
 C on
 j ud
 f av
 l im
 Israel i
 j our
 want ed
um b
lo od
n ers
 sp ok
er man
 p ick
 friend s
qu e
 l ow
  ident
 J une
 a head
in c
 m or
 exp ect
 qu ick
oc i
 S aturday
 des crib
 l ed
3 7
 im m
er a
 t y
 fin anc
 every thing
 iss ues
 h ot
 l ost
 l ate
am ed
us e
 sum mer
 some one
 opp ortun
 c ertain
 M an
ain s
p age
 e mer
 Oct ober
 out side
 reve aled
 polic y
m ber
r or
t ed
 d ou
ver age
o f
 m atch
 I m
 en er
 cou ple
il ar
i ence
u ff
 J uly
6 6
 A pr
as ing
 ro om
  ur
rend ering
 count ries
c il
 Le ague
olog y
s el
it her
 G u
d ot
 g round
ac es
 st ep
 pro ject
 B ar
 me ans
 tr ad
 lead er
ove mber
m odel
 f elt
w ork
op s
 inc ident
 C ourt
 le ar
 cap t
lect ion
 Aust ral
 rese ar
 intern ational
o ke
k y
l er
it ch
 on line
 he ld
 a ge
 relations hip
B lock
 in it
 for ward
 Bl ack
 s on
 D ec
 emp loy
 m ain
 st e
m e
 Mar ch
3 8
I d
 g irl
 belie ve
 S ept
E lements
n a
 N o
 de ad
 ke y
. page
. dot
 c ourse
 S ec
com rendering
 vis it
.dot comrendering
 min ister
5 5
 b illion
, '
 N ovember
 Af ric
h an
! 

 d ied
 D onald
 mus ic
 Jan uary
 to t
 m ult
 av ail
ru gg
 e y
u ation
 show s
 Brit ish
augh ter
8 8
 every one
 leg al
 pres ent
 be gan
 D e
 ar ri
 vot ers
 A ug
 su ff
S h
W ith
lob al
ar ter
ir on
 pr ice
 Apr il
- st
 m akes
ere nce
amp ions
 des p
 contro l
 ener gy
 act ion
 de v
 play ing
 fe at
 N orth
ogra ph
 D ep
 near ly
r up
 was n
un g
od e
 bec ame
 f ig
 cust om
 serv ice
e lement
 C ent
 A ll
e y
 ad minist
itt ing
m l
 sh are
 under stand
 poss ible
iv il
et y
ic ult
 rele ased
 inform ation
al se
  esp
ec ially
 s n
 c aus
ak er
id ing
os ing
- r
 run ning
 targ et
S T
un t
 iss ue
n ot
 or der
ition al
 off er
 Republic an
j oy
 ad m
 w ife
 l oss
end er
 pl ans
3 4
 recent ly
p ris
ick et
 G r
 Un iversity
E lement
 r ace
 alleg ed
 S en
 Th at
 b ar
ot land
 wor d
ul ation
 l at
 fam il
i od
 C ong
 N et
 s our
y n
 ch ief
ashing ton
im s
 go al
 foot ball
c l
 p ur
 build ing
v al
 d am
 R o
 se ven
est s
 a p
 st rugg
ell ing
en al
es c
 pol l
 serv ices
 v ar
 need s
 him self
ru g
ful ly
y le
ac hed
 M s
 dec l
 w ind
5 00
p ar
 a w
F irst
ly mp
 cele br
 ex ecut
a ur
 l iving
med i
 n ation
 ab s
 any thing
g ing
 c ult
iv id
 comp an
 st ates
 f ather
- up
 P l
 direct or
 avail able
 pro per
 A I
p or
re ad
 se ek
d a
at ors
b an
T r
or ing
 l ives
 st op
 resp ond
 lat est
 m ass
 diff icult
 det ail
ent ly
 t em
iet y
 chall eng
4 6
 e ight
ht ml
 act ually
a ul
u el
 G eor
 disc uss
 p le
N o
 f ell
 b ank
 tra vel
  <
 sp ace
 O lymp
 c reat
 prof ess
ive ly
re am
 to ur
 T V
 esp ecially
ir c
 meet ing
 b an
 r ound
 financ ial
 le ave
rib ut
k s
at ic
 G erman
 con v
ro om
ag ram
rou ght
 re d
 en joy
 St ates
ang er
 foc us
 b ad
. com
> ,""
 stud ents
 Lab our
  ...
h old
 c oll
 pot ential
7 8
 s en
 D av
art y
 play er
 Americ a
 per iod
 bene fit
 desp ite
M y
 n on
 so on
 Pal est
oc u
T o
ep end
t o
an a
 d en
 hosp ital
ed d
 l ight
b and
 O r
 pos ition
 con n
 claim ed
 W ashington
ip s
 resp ons
ur al
 ser ious
 f ederal
 exp ert
 Sc otland
duc ed
 m id
 r ate
 co ach
 d i
 ro ad
 st ra
 E d
 Sc ott
 indust ry
on se
 Sept ember
 t it
":" <
 parent s
sel ves
og n
 n et
 S un
er y
 ar gu
 Europe an
 A ss
ap e
 rece ived
 includ e
 mor ning
her s
 el se
 h uge
om in
 E l
 d est
I s
ic le
 A ng
 pro b
cc ording
 complet e
g ency
 C an
 C ount
th ough
 me as
 president ial
at ives
 m is
 I ran
L ast
 sim ilar
l ish
m ing
et t
ct ion
 sing le
n al
 need ed
 prov ide
 Aug ust
is es
al a
 pl at
ir med
 contin ued
3 1
ad a
 compan ies
 en v
 res ident
ib ility
 im medi
 not hing
 pr act
 sec ret
a el
i ec
u le
 prot ect
 qu ite
. T
 h on
 m od
 tri al
 s elf
 Cong ress
b ody
 A b
 s old
 st age
alif orn
H is
 b order
 char ac
6 5
il t
 d aughter
iv al
 tr ack
 Ind ian
a ult
g est
es e
 ne g
D is
 F eb
19 8
 show ed
 O ff
  &
 g old
 rep resent
 m ind
 g lobal
 Wh ite
 Inst agram
4 4
l ight
 c ivil
ar a
 H ow
 reg ion
 person al
att le
S ome
 m ot
7 0
 re ason
 comp l
 lead ing
 c ris
 resp onse
 sh ot
 qu arter
 right s
 s qu
 m ur
 pr ison
 acc used
 report s
 ag ree
 c ross
 claim s
c d
 investig ation
 Im ages
h i
l in
ur ning
 econom y
i ents
du ce
 d rug
 sh oot
 incre ase
aliforn ia
o ver
c a
m b
 bu y
 previous ly
 re view
 Ham as
 plat form
 a ut
 perform ance
re et
 b ased
 M ich
ap er
R E
 S m
 ex amp
 who le
a res
 h ol
 l arg
 M us
 ev idence
 Dep artment
 d ocu
ke y
7 5
 m ent
o e
 n ec
 r ather
ig r
ak ers
ren ch
 is n
idd le
 g ra
 cr im
 pop ular
wh ile
 S y
 ind ivid
 col le
 happen ed
 re ach
 che ck
 hig her
g es
 t w
 add ress
 conf irmed
 remain s
 gener al
 a ud
 long er
k n
 m odel
 rep l
e es
 w rong
 ch ance
 law s
 saf ety
i ber
av y
 work ed
 fore ign
 saf e
3 00
ag ed
 wor th
 h or
us band
 econom ic
6 9
 to wn
ear ch
he st
 ins ide
 Jo e
 sur pris
iron ment
 C up
. </
 g ave
 sus p
- in
 m atter
 any one
 invol ved
4 2
 are as
 rele ase
 s le
 d ro
 crit ic
 K ing
 administ ration
.T ext
 P ark
0 8
 pros ecut
g r
 work ers
 am ount
 Democrat ic
f ect
h a
 dem and
 proble m
 G etty
ip le
end s
 who se
 sit uation
 s uper
 b rought
 d iv
 beg in
ir th
if y
 pri or
 priv ate
or ters
 wh ite
 b as
om ing
 be aut
ch ie
ate g
 result s
en ed
 grow th
o le
z e
 bro ad
s c
 sp ent
 C alifornia
 current ly
 Dec ember
 p ort
 cap ital
 ve h
 D ay
": [
 det er
 vict ory
 or ig
3 2
 J ust
f ord
le ar
em ic
 particular ly
 tot al
 ent ire
 T e
ag n
b ack
il ities
5 8
 press ure
 Par is
 ide a
 cost s
ill s
 O n
6 8
m as
 h ous
 do g
li ament
 c ases
om p
igh b
 B BC
 big gest
 inst ead
re g
ou ra
 W ar
 bo ard
row d
 h usband
 l ab
 G l
 infl u
 The re
f er
 he ard
 com b
- e
 b ra
 pre vent
"},{" _
os ition
ol ly
b a
ock ed
 pre p
al t
ud get
 bl ack
 ter m
re ated
 p ain
 event s
ut in
anc he
enc ed
 ass ist
le v
A ccording
it ness
ist an
ru ary
-t ime
 Fr ance
  z
r ay
ore s
 S o
 p ack
 m at
ra ft
f a
ve red
 tri ed
 resear ch
 m ember
 g un
all ed
 ph one
ow s
 k ids
wo od
rup t
 f ield
 v ia
 examp le
 E x
 St ar
ous ands
' .

l ict
 Ch ar
 ac cept
 spe ak
Dis play
c ome
y a
 rec ogn
 turn ed
 p ublished
 happ y
h ood
 e ither
 K e
 describ ed
ig er
o id
 manag er
 for ces
age ment
6 2
 h ands
 E ast
 ed uc
 Go vern
 pr im
 includ ed
 f ear
is l
 to wards
 bo x
 viol ence
* *
 I f
 E m
 famil ies
 appe ared
 prob ably
 Feb ruary
 con c
 concer ns
 M ed
iz ation
 a verage
0 9
P h
u it
w w
 ext ra
Tr ump
 t akes
 pr ices
3 50
 ens ure
P icture
 kn ew
 how ever
  esc
pp er
 opportun ity
f ort
 p red
 eas y
 Count y
en ing
 e p
 attack s
f b
 F rench
 gr and
 develop ment
 t ro
in o
 pre t
 ph ys
id ge
 ne ighb
 cond itions
itt ee
 want s
il es
 W illi
e ase
 a chie
ning s
 eff orts
 them selves
 p air
ce ment
 sp ot
 resp ect
e ople
id a
 r out
li ed
7 7
s w
 cle an
 med ical
 Ang el
 look ed
f alse
 impro ve
 s ense
ir t
 arrest ed
 g one
 elect ions
 s ound
am b
 br and
 quest ions
 grou ps
 allow ed
 c irc
am a
 chang es
 author ities
et h
 can cer
y pe
 A pp
6 20
N ow
 s ect
 M o
 stri k
 l ack
 Democrat s
 Pol ice
 sen ior
r ast
 b ab
 week end
 appro ach
 Austral ia
 cl imate
 laun ched
 for ce
ud e
 quick ly
 cons um
 ant i
 le aving
 env ironment
d own
 s ong
60 5
A ll
 or d
5 9
 l ink
ad d
 cre ate
 rep e
 P arty
 v o
 Christ mas
 candid ate
  ill
 D r
 conf lict
 major ity
 ter ms
 mov ed
 charg es
T V
 c ause
 b irth
 ag ency
 dr ink
 n ine
ict ed
 help ed
 a id
is c
und red
 reg ular
 set t
 tra ining
 grow ing
 stri ke
 cris is
 p ark
 M or
 Afric a
ic o
-b ased
A P
ul ly
p ly
 d anger
 P at
ry ing
 do ct
6 4
b ur
 O ne
 deb ate
  vers
 g en
 T o
 cl os
 add ing
 dra w
 we ap
ain ing
 dec ided
 post ed
y c
} ]
 pe ace
 cont ract
- g
l a
 int ro
ish ing
 f lo
 l ower
ig ration
en ge
an i
 incre asing
l us
 p iec
 v ol
 cons ider
w here
 c rowd
es tern
ac ing
 spe ech
er c
 S an
The se
 con duct
go ing
 s il
ag ing
 sc ene
 dec ades
ines e
it c
 A ir
m a
ut y
 T imes
 can not
 per fect
 Americ ans
ruct ure
p m
 c am
 p aid
as ons
ens ion
 ex ist
he t
ail y
au ght
-t o
 stud y
 mult iple
 Dav id
n y
 c al
 o il
 r ates
 look s
 team s
 re ady
ill ed
p ir
it er
it iz
ist ic
ress ive
 my self
 am b
I m
 w ide
 ty p
 dou b
 crim inal
ra p
 w ays
ol ute
 B ST
 cont act
 rul es
6 7
 v ill
 win ning
on st
 th ousands
  ess
i que
 f irm
 st at
 ro ck
4 45
6 00
 c ast
 tr ust
f e
ur ies
 Brit ain
 S ch
op e
 t en
ra z
ap an
 co ver
 em b
 treat ment
om b
 J ames
 dis app
 un c
 un f
 cent re
B e
 col lect
 est ab
m ark
on a
ce ed
et er
ist ry
 jour nal
 charac ter
o es
re land
 p ers
 d ate
 D el
ig ital
 C ons
 dis co
 ind epend
 infl ation
 p an
 h ur
 its elf
esp ite
out hern
 follow ed
. ,
= \"
anche ster
a a
 s un
ap t
 execut ive
: 

 m aint
 g iving
 go es
 along side
ampions hip
A T
 w ond
 n orm
air s
h aps
i ers
t r
 work s
 custom ers
 proper ty
o ard
 re b
o o
 end ed
  er
4 00
 be at
 v ac
 four th
 offic ers
 mess age
":[ {"
d f
it ter
 b al
 b ott
un ch
 St reet
 del iver
 f an
 J ack
 part ners
 s ite
 w el
 br other
esp erson
 f air
 em ot
ean while
 immedi ately
7 1
ar ian
 r ange
i res
 b ed
 M e
 R ed
l ike
 sp ort
 leg isl
 fail ed
 for ced
us hed
 k ick
 att ention
 could n
 open ing
 Pr ime
 d ram
il ed
op er
 sp ending
 product s
 K ore
 run s
 invest ment
An other
 level s
 hom es
 s at
 C or
 partic ip
 tit le
ri f
 R oy
 ra ised
 h undred
as ion
 fav our
 Ch inese
 spok esperson
 f ast
is ions
 sur v
 expl ained
 hist or
 product ion
 laun ch
 S erv
 part ner
19 7
erv ative
 enc oura
 he ar
 r ise
 off ers
ib ly
 offic er
 talk ing
> <
 to uch
ve y
 P rem
 se par
ard ian
b d
ent ially
 ab ove
 St e
av es
 get s
O ur
s y
 an im
 go als
ex as
T ype
 b ag
 s ens
 M ark
act ion
 B ro
 we bs
ell ig
is ation
ar i
 re v
 con vers
 tr ue
 a im
 h y
il leg
 an sw
": {"
 sc hed
5 7
it or
 re ached
ess ion
 s we
 st ock
 chall enge
 n atur
 includ es
 start ing
 proble ms
  i
 eff ort
  ver
k en
s et
 L a
 law y
 sl ow
ly ing
 C oun
 D an
 com ments
  ult
 comm on
 Scott ish
 r ad
 def e
 B en
 L os
 stre ng
and er
 bl ock
 m ill
 not ed
 part ies
- a
ac hes
 word s
it ut
8 9
or ney
 b ur
 l ik
 techn ology
 challeng es
i j
 b ase
ri pt
 call s
 feel ing
 jud ge
se qu
ve re
 bo y
 comm it
up reme
 cent ral
 seem s
 Sm ith
 b lood
 sp oke
 bu ilt
8 6
E very
res h
T ok
ing ly
 val ue
 sle ep
 n amed
  illeg
 h ar
 P aul
e ed
we ight
5 2
P ublished
 s ell
 c ard
ar r
 pr ime
 ro ll
 war ned
 polit ics
 s earch
st on
and a
ress ion
 act or
 Ukra inian
 sk in
 resident s
ri ef
 me ant
7 2
 I reland
y an
 c redit
 N iger
 In tern
 b udget
es ter
ort hern
 sex ual
ad ed
 H er
 conf erence
 pos itive
 inj ury
 sa ve
em s
 qu ality
- ter
ag o
 J apan
 am id
 chang ed
 dis p
 sour ce
 Off ice
c b
re es
 we ather
 ke pt
 pret ty
d ated
 R es
 E U
 comp ared
ict ion
 jo ined
N ot
y al
ad ium
ff ic
 ass ault
 ext reme
 n om
 leaders hip
t e
} ,"
 Ch ief
 ref lect
 tri p
 Sec ret
 German y
d o
19 6
 job s
 Ph il
H er
" This
 s al
 M et
 ha ir
 Republic ans
 stra ight
 nec ess
 g reen
 he at
 ex act
 F lor
 cr ime
 Angel es
v an
ort ion
 M art
 M anchester
 B ank
 dis m
 return ed
 f em
ay lor
 us ers
 av oid
n ight
 w at
land s
 dri ve
 ment al
r im
 st o
 W ith
 tr ade
 fund ing
 b ow
ou d
 tra in
e a
 A ct
5 4
u gh
er ry
om en
 M ad
sh ire
 rest aur
 hol iday
b ook
 S ing
ide red
ang u
 reg ul
 iss ued
 sim ply
p en
ou l
 S am
 T exas
igr ants
 c at
 M ur
ra b
com ing
vious ly
 spec ific
 caus ed
 Ass oci
G etty
 re n
 al one
 mur der
 s ales
ent y
im ately
 commun ities
 var ious
 detail s
. m
ous ly
 see ing
 ass oci
A S
as c
 K am
 call ing
 elect ric
 open ed
ener al
 f ra
 M P
 H is
 mov ie
 net work
 bab y
 n orth
 E n
 sc ore
 webs ite
ellig ence
U n
 c itiz
 ind ic
 ra re
 opp osition
 dist rict
 feat ures
 docu ment
M eanwhile
m it
ag er
op h
 incre ased
 school s
ruct ion
 Mich ael
 rem ember
 sign ed
i am
ot i
and emic
 K en
ian ce
 part s
 app oint
 rem ark
 through out
 pass ed
 c ash
om an
ra w
 beh av
 Govern ment
 w ild
ic ed
if ul
 s ust
ast ic
 larg est
am ing
 T ik
 le ague
y ond
az on
c y
 f est
 even ing
 feel s
 ch arge
 cont ent
) .
N ew
 b oss
 g as
 charg ed
 Sen ate
ol ution
 inc red
 ter ror
D espite
u f
er ve
 p ath
 m ater
om s
 bo ost
 ra in
b ed
 G M
 num bers
 hig hest
 hous ing
 M ac
 sp orts
 reg ard
 somet imes
 inj ured
E O
ok ing
 pre m
 think ing
 he avy
 ag reed
 cre ated
H S
U p
re l
il le
anc ed
 cho ice
 Coun cil
ur ch
vent ion
 aff ord
