{"\n":0," ":1,"!":2,"\"":3,"#":4,"$":5,"%":6,"&":7,"'":8,"(":9,")":10,"*":11,"+":12,",":13,"-":14,".":15,"/":16,"0":17,"1":18,"2":19,"3":20,"4":21,"5":22,"6":23,"7":24,"8":25,"9":26,":":27,";":28,"<":29,"=":30,">":31,"?":32,"@":33,"A":34,"B":35,"C":36,"D":37,"E":38,"F":39,"G":40,"H":41,"I":42,"J":43,"K":44,"L":45,"M":46,"N":47,"O":48,"P":49,"Q":50,"R":51,"S":52,"T":53,"U":54,"V":55,"W":56,"X":57,"Y":58,"Z":59,"[":60,"\\":61,"]":62,"^":63,"_":64,"`":65,"a":66,"b":67,"c":68,"d":69,"e":70,"f":71,"g":72,"h":73,"i":74,"j":75,"k":76,"l":77,"m":78,"n":79,"o":80,"p":81,"q":82,"r":83,"s":84,"t":85,"u":86,"v":87,"w":88,"x":89,"y":90,"z":91,"{":92,"}":93,"~":94,"":95,"":96,"":97,"":98,"":99,"":100,"":101,"":102,"":103,"":104,"¡":105,"¢":106,"£":107,"¦":108,"§":109,"¨":110,"©":111,"ª":112,"­":113,"®":114,"¯":115,"°":116,"±":117,"³":118,"µ":119,"·":120,"º":121,"¼":122,"½":123,"¾":124,"¿":125,"À":126,"Á":127,"Â":128,"Ã":129,"Ä":130,"Å":131,"Ç":132,"È":133,"É":134,"Í":135,"Î":136,"Ò":137,"Ó":138,"Ô":139,"Ö":140,"×":141,"Ø":142,"Ü":143,"ß":144,"à":145,"á":146,"â":147,"ã":148,"ä":149,"å":150,"æ":151,"ç":152,"è":153,"é":154,"ê":155,"ë":156,"ì":157,"í":158,"î":159,"ï":160,"ñ":161,"ò":162,"ó":163,"ô":164,"ö":165,"ø":166,"ù":167,"ú":168,"û":169,"ü":170,"ý":171,"þ":172,"ÿ":173,"ā":174,"ă":175,"ą":176,"Ć":177,"ć":178,"č":179,"Đ":180,"đ":181,"Ē":182,"ē":183,"ė":184,"ę":185,"ğ":186,"ģ":187,"ī":188,"İ":189,"ı":190,"ł":191,"ń":192,"ņ":193,"ň":194,"ō":195,"ř":196,"ś":197,"Ş":198,"ş":199,"Š":200,"š":201,"ţ":202,"ū":203,"ŵ":204,"ŷ":205,"ż":206,"ž":207,"ư":208,"ș":209,"ț":210,"ə":211,"ʔ":212,"ʷ":213,"ʻ":214,"̀":215,"́":216,"̃":217,"̈":218,"О":219,"С":220,"У":221,"а":222,"и":223,"к":224,"н":225,"р":226,"ї":227,"Ա":228,"Բ":229,"Գ":230,"Դ":231,"Ե":232,"Զ":233,"Է":234,"Ը":235,"Թ":236,"Ժ":237,"Ի":238,"Լ":239,"Խ":240,"Ծ":241,"Կ":242,"Հ":243,"Ձ":244,"Ղ":245,"Ճ":246,"Մ":247,"Յ":248,"Ն":249,"Շ":250,"Ո":251,"Չ":252,"Պ":253,"Ջ":254,"Ռ":255,"Ս":256,"Վ":257,"Տ":258,"Ր":259,"Ւ":260,"Փ":261,"Ք":262,"Օ":263,"Ֆ":264,"՛":265,"՝":266,"՞":267,"ա":268,"բ":269,"գ":270,"դ":271,"ե":272,"զ":273,"է":274,"ը":275,"թ":276,"ժ":277,"ի":278,"լ":279,"խ":280,"ծ":281,"կ":282,"հ":283,"ձ":284,"ղ":285,"ճ":286,"մ":287,"յ":288,"ն":289,"շ":290,"ո":291,"չ":292,"պ":293,"ջ":294,"ռ":295,"ս":296,"վ":297,"տ":298,"ր":299,"ց":300,"ւ":301,"փ":302,"ք":303,"օ":304,"ֆ":305,"և":306,"։":307,"฿":308,"ḥ":309,"Ṡ":310,"ṣ":311,"ạ":312,"ả":313,"ầ":314,"ắ":315,"ẹ":316,"ế":317,"ệ":318,"ị":319,"ọ":320,"ố":321,"ộ":322,"ờ":323,"ợ":324,"ừ":325,"ự":326,"ỹ":327,"‌":328,"‍":329,"‐":330,"‑":331,"―":332,"•":333,"․":334,"‬":335,"‭":336,"′":337,"″":338,"‴":339,"›":340,"‼":341,"⁠":342,"⁣":343,"⁤":344,"⁦":345,"⁩":346,"₂":347,"₦":348,"€":349,"₱":350,"₹":351,"℞":352,"™":353,"⅓":354,"⅔":355,"↔":356,"−":357,"⊕":358,"⏳":359,"■":360,"▶":361,"►":362,"◀":363,"●":364,"☀":365,"★":366,"☆":367,"♀":368,"♂":369,"♥":370,"♦":371,"♪":372,"♬":373,"⚽":374,"✅":375,"✔":376,"✨":377,"❌":378,"❤":379,"➡":380,"⭐":381,"・":382,"ﬁ":383,"ﬂ":384,"︎":385,"️":386,"�":387,"𝄒":388,"🇦":389,"🇱":390,"🇳":391,"🇸":392,"🇺":393,"🌪":394,"🌴":395,"🌹":396,"🍓":397,"🍹":398,"🍺":399,"🎁":400,"🎢":401,"🎪":402,"🏆":403,"🏻":404,"🏼":405,"🏽":406,"🏾":407,"🐎":408,"👀":409,"👈":410,"👉":411,"👍":412,"👏":413,"💕":414,"💙":415,"💥":416,"💨":417,"💬":418,"📋":419,"📍":420,"📷":421,"📸":422,"🔥":423,"😂":424,"😅":425,"😆":426,"😊":427,"😍":428,"😢":429,"😭":430,"😮":431,"😱":432,"😳":433,"🙄":434,"🙌":435,"🙏":436,"🚨":437,"🛒":438,"🤎":439,"🤔":440,"🤣":441,"🤦":442,"🤫":443,"🤯":444,"🤵":445,"🤷":446,"🥅":447,"🥇":448,"🥥":449,"🥪":450,"🥹":451,"🥺":452,"🫣":453," t":454," a":455,"he":456,"in":457,"re":458,"on":459," the":460," s":461,"er":462," w":463,"at":464,"en":465," c":466,"or":467,"it":468,"ed":469,"an":470,"ing":471," o":472," f":473,"is":474," b":475,"es":476," p":477,"ar":478," to":479,"nd":480,".\n":481,"al":482,"ou":483," in":484," h":485," m":486,"as":487," of":488," d":489," and":490,"ic":491,"le":492," th":493,"om":494,"ion":495,"id":496,"il":497,"ent":498," l":499," re":500,"st":501,"ve":502," n":503,"ot":504," be":505," g":506," e":507,"ly":508,"ut":509,"ay":510," on":511,"ac":512,"im":513,"ro":514,"ad":515,"'s":516,"am":517," for":518," he":519,"et":520,"ur":521,"el":522,"ig":523," S":524,"ow":525,"ol":526," that":527,"ver":528," is":529," st":530,"ir":531," I":532,"The":533,"ec":534,"us":535,"ter":536,"ith":537," C":538," M":539," it":540," A":541," y":542," wh":543," with":544," was":545," as":546,"ation":547,"ce":548,"ill":549," B":550," al":551,"un":552," \"":553," an":554," we":555,"ers":556," at":557,"ld":558,"th":559,"ra":560," T":561,"se":562,"ul":563,"ri":564,"ke":565," P":566," ha":567,"ag":568," sa":569,"and":570,"ht":571,"ment":572,"ch":573,"est":574," con":575,"her":576,"pp":577,"ate":578,",\"":579,"ct":580,"if":581,"ore":582,"rom":583,"res":584," r":585," you":586,"um":587," R":588," H":589," said":590," D":591," com":592,"ear":593,"op":594,"ort":595," are":596," his":597," v":598,"em":599," have":600,"ity":601,"ain":602,"oc":603," has":604,"od":605,"ew":606," G":607," N":608," from":609,"20":610," sh":611,"art":612,"os":613,"ab":614," ex":615," W":616,"red":617,"ess":618," ch":619," L":620," by":621,"ant":622,"ist":623,"ould":624,"ive":625,"ust":626," pro":627,"qu":628,"ight":629," le":630,"up":631," F":632," de":633," not":634,"ast":635," se":636,"end":637,"all":638," -":639,"ies":640,"ack":641,"our":642," J":643,"ia":644," pl":645," j":646,"ak":647," su":648,"out":649,"nt":650," go":651," ab":652," E":653," this":654,"ard":655," sp":656," or":657,"ect":658,"iv":659,"ost":660,"ial":661," U":662,".\"":663,"rou":664,"ud":665,"ome":666," who":667,"\":":668," her":669," whe":670," will":671," they":672,"ge":673,"ong":674," wor":675,"ok":676," their":677,"'t":678," but":679," k":680,"ff":681,"ell":682,".\"\n":683,"ice":684,"ich":685,"ine":686," out":687," K":688,"00":689," had":690,"ide":691,"ep":692,"ry":693," can":694," ad":695," (":696," year":697," been":698," O":699,"fter":700," she":701,"ap":702," do":703,"gh":704,"ans":705,"ally":706," int":707,"cc":708," up":709," off":710,"one":711,"ime":712,"age":713,"ous":714,"ure":715," cl":716," ne":717," all":718," ag":719," The":720,"ions":721," me":722," were":723," un":724,"so":725,"ub":726,"und":727,"ie":728,"ip":729," more":730,"ated":731,"ame":732," about":733," inc":734," after":735,"ue":736,"mer":737,"ther":738,"ays":739," which":740,"ike":741,"ber":742,"are":743," exp":744,"ake":745,"ord":746,"ary":747,"ian":748," also":749," one":750," pe":751,"202":752," us":753," over":754," so":755,"very":756,"ign":757,"ond":758,"orm":759," en":760,"ace":761," im":762," comp":763,"ople":764,"ident":765,"\":\"":766,"ind":767," lo":768," res":769," cont":770,"ount":771,"ile":772," would":773,"act":774," part":775," its":776,"ress":777," rep":778," people":779,"ire":780,"It":781," St":782,"ven":783,"irst":784," pr":785,"ick":786," Ch":787,"ict":788," man":789," like":790," when":791,"ance":792," per":793,"wo":794," tr":795," rec":796,"own":797,"ree":798,"av":799," just":800,"old":801,"ass":802,"pt":803,"ence":804,"ite":805," dis":806,"ult":807," pol":808," than":809,"ations":810,"lo":811,"ark":812,",\"\"":813," my":814," work":815,"ish":816," app":817," new":818," there":819,"ose":820,"day":821,"hed":822,"form":823," time":824," sc":825,"able":826," bec":827,"lect":828,"ock":829," ar":830,"ump":831," them":832," qu":833,"ail":834," acc":835,"ning":836," into":837,"Th":838,"ink":839," kn":840,"ib":841,"ere":842,"ll":843,"aus":844,"uc":845," him":846," get":847," first":848,"ens":849,"ound":850,"ek":851," other":852,"amp":853,"ild":854,"og":855," ro":856," some":857,"ach":858," V":859," two":860,"ase":861," what":862,"ical":863," att":864,"In":865," play":866,"int":867,"reat":868,"ors":869,"ne":870,"iz":871," could":872,"ade":873,"rit":874,"ubl":875," '":876," pre":877," imp":878," Tr":879,"med":880," our":881," back":882," te":883,"anc":884," your":885,"wn":886,"He":887," again":888,"ru":889,"ang":890," any":891," co":892," years":893,"19":894," add":895,"ng":896,"ition":897," dec":898,"ious":899,"ings":900,"lud":901,"ty":902," act":903,"oll":904," if":905,"aw":906," last":907,"round":908,"ory":909," no":910,"we":911,"land":912," und":913,"erv":914,"igh":915,"ause":916," fe":917," am":918,"ates":919," sec":920,"fore":921,"uring":922,"pe":923,"other":924,"itt":925," inv":926," Y":927,"urn":928,"resident":929,"ps":930," bo":931," Th":932,"ax":933,"vel":934," now":935,"co":936," includ":937," how":938,"ov":939,"ments":940,"enc":941," bet":942,"ft":943,"iss":944," Trump":945," did":946,"We":947,"idth":948,"ater":949,"width":950,"als":951," show":952," comm":953," under":954," supp":955,"vers":956,"vern":957,"hing":958,"ons":959," want":960,"li":961,"ris":962," count":963,"aking":964," In":965," week":966,"But":967," before":968," br":969," mon":970," rem":971," fin":972," op":973," being":974," need":975,"..":976,"ublic":977,"{\"":978,"ss":979,"ational":980,"ife":981,"oint":982,"xt":983,"'re":984,"ily":985," where":986,"arg":987,"ating":988," every":989," state":990," only":991," des":992,"ince":993,"vent":994,"ath":995,"ert":996,"ough":997," lead":998,"ah":999,"ful":1000,"man":1001,"uss":1002,"gu":1003," think":1004," look":1005,"row":1006," Is":1007," report":1008," tra":1009,"ob":1010,"uch":1011,"ove":1012," because":1013,"oun":1014,"rough":1015,"10":1016," most":1017,"ren":1018,"az":1019,"ality":1020,"ting":1021," say":1022," fam":1023," inter":1024,"les":1025," against":1026," New":1027,"ities":1028," cons":1029," make":1030," even":1031,"ise":1032,"fit":1033,"ood":1034,"oss":1035," call":1036," then":1037," know":1038," em":1039,"aster":1040,"ied":1041," end":1042," while":1043," reg":1044,"ited":1045," min":1046," elect":1047," ac":1048,"ward":1049," bl":1050,"elf":1051," told":1052," govern":1053,"201":1054," ind":1055,"iff":1056," hel":1057,"erson":1058,"ght":1059," It":1060,"aut":1061,"ues":1062," ear":1063," month":1064," through":1065," three":1066," ra":1067,"led":1068," med":1069," down":1070,"hen":1071,"ank":1072," don":1073," win":1074," start":1075,"ved":1076,"ared":1077,"iew":1078,"hip":1079,"ram":1080," made":1081,"ason":1082," long":1083," ret":1084,"rib":1085," def":1086," He":1087," during":1088,"alk":1089," war":1090,"air":1091," going":1092," conf":1093," well":1094," ke":1095,"ote":1096,"com":1097,"illion":1098," Un":1099," bu":1100,"gg":1101,"du":1102,"This":1103,"'ve":1104," right":1105,"uk":1106,"ents":1107," team":1108," cr":1109," sur":1110," see":1111," many":1112,"rael":1113," set":1114,"any":1115,"ee":1116," fl":1117,"ph":1118,"oth":1119," offic":1120," says":1121,"},":1122,"ix":1123," way":1124,"},{\"":1125,"ased":1126,"ool":1127,"ving":1128," $":1129," ass":1130," very":1131,"50":1132," those":1133,"ouse":1134," own":1135," rel":1136,"ering":1137," cent":1138," around":1139,"30":1140," help":1141,"?\n":1142," home":1143,"ork":1144," should":1145,"way":1146,"au":1147," day":1148,"ner":1149," car":1150,"alth":1151,"000":1152,"12":1153,"'m":1154,"ters":1155," £":1156,"atch":1157," resp":1158," support":1159," child":1160,"ange":1161," much":1162,"ott":1163,"ash":1164,"ollow":1165," take":1166," high":1167,"rong":1168," government":1169,"ative":1170," sign":1171,"oot":1172," wom":1173,"ross":1174," since":1175,"imes":1176," including":1177,"Wh":1178,"ourt":1179," still":1180,"let":1181," these":1182,"pl":1183,"ever":1184," ph":1185,"ather":1186,"ording":1187,"ets":1188," good":1189,"meric":1190,"ures":1191,"ont":1192,"ected":1193,"ular":1194,"//":1195," Le":1196,"-b":1197,"://":1198,"tps":1199," may":1200,"ower":1201,"ics":1202,"ced":1203,"hes":1204," Mr":1205," diff":1206,"45":1207,"https":1208,"ered":1209,"gan":1210,"ned":1211,"oy":1212," sm":1213," law":1214,"pr":1215," found":1216," Israel":1217," world":1218," ins":1219,"And":1220," run":1221,"hn":1222,"ener":1223,"15":1224,"17":1225,"ween":1226,"ames":1227," Ind":1228,"ling":1229,"ible":1230," invest":1231,"ives":1232,"media":1233,"leg":1234,"iel":1235,"ific":1236,"ember":1237,"aj":1238,"-t":1239,"She":1240,"att":1241,"iden":1242,"ual":1243," country":1244," contin":1245," point":1246," four":1247," really":1248,"omet":1249," gu":1250," follow":1251," Fr":1252," such":1253,"40":1254," life":1255,"son":1256," Americ":1257,"ik":1258,"ric":1259," ter":1260,".uk":1261,".co":1262," former":1263,"ility":1264," between":1265,"60":1266,"ble":1267," feel":1268," happ":1269,"ady":1270,"ages":1271,"\"I":1272,"ices":1273,"rc":1274," camp":1275,"aim":1276," serv":1277,"ister":1278,"ital":1279," ent":1280,"-y":1281," president":1282," bel":1283,"rat":1284," ser":1285," cap":1286,"ale":1287,"lement":1288,"ised":1289,"duct":1290,"ands":1291,"ave":1292," family":1293,"irect":1294,"ms":1295," added":1296," ref":1297," tri":1298," big":1299,"ull":1300," second":1301," does":1302,"get":1303,"src":1304,"lock":1305,"pg":1306,"18":1307,"sh":1308," leg":1309,".j":1310,".gu":1311," Sh":1312," inf":1313,".jpg":1314,"per":1315,".guim":1316," eff":1317,"outh":1318," person":1319,"min":1320,"ision":1321," col":1322," polit":1323," public":1324,"con":1325,"cer":1326," post":1327," care":1328," Mar":1329,"line":1330,"ret":1331,"-year":1332,"ys":1333," head":1334," cle":1335," ann":1336," grou":1337,"11":1338,"-f":1339," Biden":1340," Har":1341,"quality":1342," bus":1343," Russ":1344,"riend":1345," put":1346," game":1347," left":1348,"eb":1349,"ina":1350," prov":1351,"They":1352," iss":1353," fil":1354," Sc":1355," got":1356," another":1357,"ves":1358," sl":1359," attack":1360," gr":1361," dep":1362," mil":1363," Jo":1364," claim":1365,"ody":1366,"ness":1367,"ene":1368," prot":1369," sy":1370,"ute":1371,"master":1372," ask":1373,"ists":1374," trans":1375,"ier":1376," US":1377," best":1378," next":1379," loc":1380,"ished":1381,"esp":1382,"ex":1383," stud":1384,"auto":1385," And":1386," Al":1387,"There":1388,"iness":1389," both":1390," soc":1391," plan":1392,"chool":1393,"ield":1394," recent":1395," come":1396,"/im":1397,"max":1398," del":1399," det":1400,"ton":1401,"ually":1402,"ially":1403," far":1404," ext":1405,"/master":1406,"uro":1407," opp":1408,"format":1409,"ines":1410," open":1411," mark":1412,"&s":1413,"/img":1414,"&fit":1415,"&quality":1416,"&auto":1417,"=max":1418,"=format":1419,"?width":1420,"redit":1421," somet":1422,"pped":1423,"orn":1424,"ought":1425,"ug":1426,"ants":1427,")\n":1428," lot":1429," health":1430," Ar":1431,"/media":1432,"ef":1433,"rem":1434," che":1435,"io":1436," same":1437,"emoc":1438," sub":1439," too":1440," cur":1441,"self":1442," season":1443," spe":1444," num":1445,"ject":1446," Sp":1447," event":1448,"kra":1449," pass":1450," near":1451," direct":1452,"200":1453," fr":1454,"ury":1455,"uck":1456,"omm":1457,"urs":1458,"ins":1459," find":1460,"ral":1461,"</":1462,"be":1463,"As":1464," inst":1465,"14":1466," place":1467,"akes":1468," never":1469,"ways":1470,"uth":1471,"its":1472,"ivers":1473,"bers":1474,"aign":1475,"85":1476,"On":1477,"ency":1478,"'\n":1479,"ird":1480,"ration":1481," top":1482,"af":1483," pri":1484," mem":1485,"orts":1486,"ense":1487,"olog":1488,"vious":1489," Wh":1490," according":1491,"view":1492,"eri":1493,"ional":1494," President":1495,"ecut":1496," spec":1497," try":1498," great":1499," days":1500," differe":1501,"thing":1502," million":1503,"80":1504,"side":1505," here":1506,"eng":1507," official":1508," vot":1509,"ces":1510,"dd":1511," campaign":1512,"rent":1513," Rep":1514," commun":1515," pay":1516,"25":1517," star":1518,"ief":1519," bre":1520,"iving":1521," media":1522,"oney":1523," adv":1524,"16":1525," UK":1526," pres":1527," children":1528,"24":1529,".S":1530,"-c":1531,"ired":1532," incre":1533," police":1534,"ism":1535," women":1536,"ck":1537,"ured":1538,"ined":1539," use":1540," But":1541," remain":1542," rest":1543," Ukra":1544,"conom":1545,"tern":1546," ob":1547,"-old":1548," prom":1549," court":1550," election":1551," kill":1552,"ald":1553," across":1554," fac":1555," air":1556," expl":1557," vis":1558,"cess":1559," party":1560," five":1561," dri":1562,"ajor":1563," company":1564,"-p":1565," Re":1566,"ney":1567," few":1568," miss":1569,"gy":1570," case":1571," night":1572," gener":1573," la":1574,"That":1575," didn":1576," wr":1577," rele":1578," won":1579," used":1580,"br":1581,"alf":1582,"ten":1583," school":1584," keep":1585," seen":1586,"...":1587,"-s":1588," away":1589," cre":1590," Pr":1591," took":1592," sim":1593," business":1594," group":1595,"ged":1596,"arge":1597," beh":1598,"ittle":1599,"osed":1600," months":1601," Euro":1602," mov":1603,"velop":1604,"),":1605," young":1606,"emocrat":1607,"ple":1608," el":1609," We":1610,"iday":1611," always":1612," called":1613,"orth":1614,"ately":1615,"You":1616," later":1617," Z":1618,"der":1619," art":1620," Bl":1621," cost":1622," things":1623," something":1624," ris":1625," deb":1626,"13":1627,"ours":1628," came":1629," reported":1630," friend":1631," hand":1632," Min":1633,"aring":1634," real":1635,"How":1636," hop":1637," mom":1638,"nes":1639," result":1640,"iet":1641," turn":1642," disc":1643," Eng":1644," econom":1645,"atur":1646,"cept":1647," might":1648," Brit":1649," hard":1650," belie":1651," return":1652," sk":1653,"stem":1654," experi":1655,"odel":1656," av":1657," talk":1658," pos":1659,"ically":1660," aff":1661," grow":1662," six":1663,"duc":1664," milit":1665,"ague":1666," build":1667," social":1668," power":1669," str":1670," without":1671," prog":1672,"ched":1673," quest":1674,"ham":1675,"ift":1676," major":1677," announ":1678,"If":1679,"used":1680,"iver":1681,"An":1682," allow":1683,"less":1684,"ruct":1685," met":1686," record":1687,"For":1688,"'ll":1689,"urity":1690," United":1691," went":1692,"ele":1693," love":1694,"ann":1695," requ":1696,"ending":1697,"rist":1698,"ued":1699," sw":1700," dem":1701," foot":1702," unt":1703," past":1704,"35":1705," better":1706," little":1707," partic":1708,"ley":1709," different":1710," fore":1711," pop":1712," stre":1713," appro":1714," each":1715,"22":1716,"ready":1717,"ster":1718,"osp":1719," move":1720," dist":1721,"ries":1722," import":1723," hist":1724," meet":1725,"erest":1726," fact":1727," rece":1728," along":1729," She":1730," bro":1731," having":1732,"ained":1733,"ians":1734," job":1735,"Credit":1736,"aken":1737,"ient":1738," stand":1739,"aff":1740,"app":1741,"ball":1742," happen":1743," York":1744," ev":1745,"ony":1746," Democrat":1747," develop":1748," press":1749," vict":1750," poss":1751," making":1752," hum":1753,"ided":1754," reve":1755,"St":1756," money":1757,"loy":1758,"When":1759,"inal":1760,"iven":1761," oper":1762,"ober":1763," already":1764,"90":1765,"rend":1766,"aint":1767," product":1768," less":1769," city":1770," system":1771," [":1772," political":1773," saf":1774," Republic":1775,".'\n":1776,"arm":1777,"iol":1778," deal":1779,"ats":1780," death":1781,"ead":1782,"elt":1783," est":1784,"enn":1785," change":1786," clear":1787," ve":1788,"'d":1789," mus":1790," vide":1791," polic":1792,"arent":1793," let":1794," final":1795," number":1796,"by":1797," sing":1798," working":1799," perform":1800," wrote":1801," until":1802,"ook":1803,"the":1804,"-d":1805,"rest":1806,"reen":1807," Mc":1808," current":1809,"aza":1810,"acy":1811," cor":1812," inj":1813," news":1814," An":1815,"head":1816," water":1817,"cent":1818," early":1819,"ata":1820,"ived":1821,"augh":1822,"ertain":1823," old":1824,"ars":1825,"port":1826," men":1827," May":1828," interest":1829,"ane":1830,"une":1831," Cl":1832," intern":1833," crit":1834,"utes":1835,"26":1836,"pect":1837,"ably":1838,"uthor":1839,"ying":1840,"27":1841,"ots":1842," ball":1843,"ution":1844," sit":1845," alleg":1846,"atter":1847," Europe":1848," stri":1849," view":1850,"ger":1851," sent":1852," infl":1853," host":1854,"So":1855," full":1856,"ament":1857," times":1858,"\"The":1859," fund":1860,"-m":1861," sum":1862," local":1863,"28":1864," X":1865," thought":1866," contro":1867," become":1868," level":1869," cond":1870," Car":1871,"33":1872," Am":1873," able":1874," investig":1875,"ccess":1876," ed":1877,"ining":1878," seem":1879," military":1880,"ech":1881,"ron":1882," pot":1883,"ances":1884,"ential":1885," concer":1886," cut":1887,"ract":1888," Ph":1889," cou":1890,"iting":1891," exc":1892,"100":1893,"bs":1894,"ai":1895," following":1896,"nce":1897,"BC":1898," third":1899," side":1900," must":1901," small":1902," previous":1903,"idd":1904," tell":1905," Harris":1906,"ized":1907,"ature":1908," Ukraine":1909,"lier":1910,"block":1911,"onald":1912," asked":1913," appear":1914,"wards":1915,"empt":1916,"\"We":1917," test":1918,"orld":1919," close":1920," fur":1921,"ases":1922," chall":1923," House":1924," saying":1925," South":1926," members":1927," statement":1928," tax":1929,"eg":1930,"ox":1931," India":1932," comes":1933," American":1934," News":1935,"rict":1936," organ":1937,"irl":1938," why":1939,"ortun":1940," half":1941," chang":1942," Pal":1943,"iversity":1944," dra":1945,"47":1946," hit":1947," mar":1948,"ended":1949,"mp":1950," film":1951,"hel":1952," Gaza":1953," house":1954," hold":1955,"uture":1956," Jan":1957," food":1958,"play":1959,"ards":1960," toget":1961," least":1962," together":1963,"here":1964," form":1965," ever":1966,"eral":1967," today":1968," face":1969,"artment":1970,"aled":1971," often":1972," Sund":1973," give":1974," John":1975,"ran":1976,"uly":1977," par":1978," list":1979," viol":1980,"ondon":1981,"ention":1982," among":1983," sever":1984,"onday":1985," short":1986," known":1987," City":1988,"-w":1989," taken":1990,"idence":1991," getting":1992," decision":1993,"ush":1994," process":1995," Q":1996,"ams":1997," free":1998,"ext":1999," As":2000," This":2001," Par":2002," invol":2003," important":2004," whether":2005,"most":2006," due":2007," appe":2008,"ev":2009,"itions":2010,"ison":2011," Af":2012," thing":2013,"39":2014,"els":2015," compet":2016,"ider":2017,"ified":2018," opt":2019," national":2020," ago":2021,"stand":2022," taking":2023," charg":2024," success":2025," Monday":2026," author":2027," fight":2028," Be":2029," Br":2030,"-l":2031," line":2032,"-h":2033," book":2034,"ried":2035,"36":2036,"ior":2037," emp":2038," future":2039," live":2040," players":2041,"rew":2042," doing":2043," risk":2044," inform":2045," jo":2046," several":2047," games":2048," given":2049," po":2050," series":2051," strong":2052,"uesday":2053,"go":2054," Sunday":2055,"ales":2056," laun":2057,"etty":2058," England":2059,"ection":2060," video":2061," char":2062," mean":2063," Friday":2064," Oct":2065," likely":2066," fans":2067," Comm":2068," manag":2069,"ggest":2070," cand":2071," started":2072,"However":2073,"At":2074," eas":2075,"\"It":2076," Wed":2077,"crib":2078,"ades":2079," leaders":2080," moment":2081,"ising":2082," Co":2083," club":2084," London":2085," Russia":2086,"ium":2087," bit":2088," proble":2089,"ept":2090," suggest":2091,"21":2092," ide":2093,"\"\n":2094," further":2095," enough":2096,"One":2097," Se":2098," though":2099," Tuesday":2100," rul":2101," pat":2102," prop":2103,"pping":2104,"echn":2105," fail":2106," Aust":2107," You":2108," market":2109," sol":2110," foc":2111," expected":2112," done":2113," val":2114," ant":2115," security":2116," Inst":2117,"ories":2118," sex":2119,"lements":2120," Ham":2121,"ored":2122," pros":2123,"lex":2124," Go":2125," account":2126," hig":2127," Christ":2128," officials":2129,"my":2130," walk":2131,"uper":2132," once":2133," ri":2134," const":2135," relations":2136,"99":2137,"nesday":2138," West":2139," dr":2140," kind":2141," They":2142," targ":2143,"ublished":2144," weeks":2145," large":2146,"rop":2147,"ides":2148,"ator":2149," gl":2150," Sw":2151," area":2152," behind":2153," Wednesday":2154," writ":2155,"imate":2156," read":2157,"itted":2158," effect":2159," fall":2160," bring":2161,"23":2162," cele":2163,"ination":2164,"Al":2165," doesn":2166,"ursday":2167," prof":2168,"ission":2169,"What":2170,"uge":2171," threat":2172,").\n":2173," looking":2174," candid":2175," cho":2176," break":2177,"ones":2178," hours":2179,"ts":2180," continue":2181,"irm":2182," At":2183," role":2184,"ogra":2185," sus":2186," played":2187,"inian":2188," class":2189,"ize":2190," announced":2191," Pol":2192," sure":2193,"&d":2194," design":2195,"&dpr":2196," coming":2197,"29":2198," Thursday":2199,"After":2200,"ern":2201," program":2202," yet":2203,"48":2204,"order":2205," data":2206," shared":2207," Ad":2208,"lob":2209," signific":2210,"\\\"":2211,"alif":2212," mother":2213," Col":2214,"Ch":2215," For":2216," trying":2217,"yl":2218," cust":2219," comment":2220," complet":2221," watch":2222," National":2223,"ashing":2224," within":2225," office":2226,"\"},{\"":2227,"itive":2228," community":2229," eng":2230,"wh":2231," hosp":2232," others":2233,"for":2234," Pro":2235," heart":2236," treat":2237," woman":2238," arrest":2239,"lor":2240," fire":2241," using":2242," indust":2243,"reed":2244,"ids":2245,"illi":2246," human":2247," World":2248,"reme":2249," coun":2250,"aly":2251," story":2252,"ean":2253," body":2254," China":2255," particular":2256," experience":2257," killed":2258," land":2259," interview":2260," history":2261,"ences":2262," Minister":2263," special":2264," mess":2265,"icture":2266,"ensive":2267,"oon":2268," occ":2269,"49":2270,"ederal":2271,"hern":2272,"ns":2273," fun":2274,"aps":2275,"ights":2276," State":2277," points":2278," percent":2279," impro":2280," priv":2281,"199":2282," techn":2283," equ":2284," Lab":2285,"Mr":2286," impact":2287,"While":2288," hope":2289,"bb":2290,"aced":2291,"minist":2292," wa":2293," hom":2294," beg":2295,"aving":2296," stay":2297,"aturday":2298," attempt":2299," front":2300,"de":2301,"strong":2302," saw":2303," access":2304,"ae":2305,"rown":2306," rese":2307,"field":2308," almost":2309,"off":2310," vote":2311," bill":2312,"lic":2313,"ask":2314,"type":2315," question":2316,"uary":2317," parent":2318,"resent":2319,"ressed":2320,"ability":2321," enc":2322," earlier":2323,"cast":2324,"ourse":2325,"eor":2326," phot":2327," ens":2328," deep":2329,"ches":2330,"ring":2331," name":2332," Russian":2333," bene":2334," minutes":2335," staff":2336," activ":2337," career":2338," significant":2339,"aid":2340," Con":2341," jud":2342," fav":2343," lim":2344," Israeli":2345," jour":2346," wanted":2347,"umb":2348,"lood":2349,"ners":2350," spok":2351,"erman":2352," pick":2353," friends":2354,"que":2355," low":2356," ident":2357," June":2358," ahead":2359,"inc":2360," mor":2361," expect":2362," quick":2363,"oci":2364," Saturday":2365," describ":2366," led":2367,"37":2368," imm":2369,"era":2370," ty":2371," financ":2372," everything":2373," issues":2374," hot":2375," lost":2376," late":2377,"amed":2378,"use":2379," summer":2380," someone":2381," opportun":2382," certain":2383," Man":2384,"ains":2385,"page":2386," emer":2387," October":2388," outside":2389," revealed":2390," policy":2391,"mber":2392,"ror":2393,"ted":2394," dou":2395,"verage":2396,"of":2397," match":2398," Im":2399," ener":2400," couple":2401,"ilar":2402,"ience":2403,"uff":2404," July":2405,"66":2406," Apr":2407,"asing":2408," room":2409," ur":2410,"rendering":2411," countries":2412,"cil":2413," League":2414,"ology":2415,"sel":2416,"ither":2417," Gu":2418,"dot":2419," ground":2420,"aces":2421," step":2422," project":2423," Bar":2424," means":2425," trad":2426," leader":2427,"ovember":2428,"model":2429," felt":2430,"work":2431,"ops":2432," incident":2433," Court":2434," lear":2435," capt":2436,"lection":2437," Austral":2438," resear":2439," international":2440,"oke":2441,"ky":2442,"ler":2443,"itch":2444," online":2445," held":2446," age":2447," relationship":2448,"Block":2449," init":2450," forward":2451," Black":2452," son":2453," Dec":2454," employ":2455," main":2456," ste":2457,"me":2458," March":2459,"38":2460,"Id":2461," girl":2462," believe":2463," Sept":2464,"Elements":2465,"na":2466," No":2467," dead":2468," key":2469,".page":2470,".dot":2471," course":2472," Sec":2473,"comrendering":2474," visit":2475,".dotcomrendering":2476," minister":2477,"55":2478," billion":2479,",'":2480," November":2481," Afric":2482,"han":2483,"!\n":2484," died":2485," Donald":2486," music":2487," January":2488," tot":2489," mult":2490," avail":2491,"rugg":2492," ey":2493,"uation":2494," shows":2495," British":2496,"aughter":2497,"88":2498," everyone":2499," legal":2500," present":2501," began":2502," De":2503," arri":2504," voters":2505," Aug":2506," suff":2507,"Sh":2508,"With":2509,"lobal":2510,"arter":2511,"iron":2512," price":2513," April":2514,"-st":2515," makes":2516,"erence":2517,"ampions":2518," desp":2519," control":2520," energy":2521," action":2522," dev":2523," playing":2524," feat":2525," North":2526,"ograph":2527," Dep":2528," nearly":2529,"rup":2530," wasn":2531,"ung":2532,"ode":2533," became":2534," fig":2535," custom":2536," service":2537,"element":2538," Cent":2539," All":2540,"ey":2541," administ":2542,"itting":2543,"ml":2544," share":2545," understand":2546," possible":2547,"ivil":2548,"ety":2549,"icult":2550," released":2551," information":2552,"alse":2553," esp":2554,"ecially":2555," sn":2556," caus":2557,"aker":2558,"iding":2559,"osing":2560,"-r":2561," running":2562," target":2563,"ST":2564,"unt":2565," issue":2566,"not":2567," order":2568,"itional":2569," offer":2570," Republican":2571,"joy":2572," adm":2573," wife":2574," loss":2575,"ender":2576," plans":2577,"34":2578," recently":2579,"pris":2580,"icket":2581," Gr":2582," University":2583,"Element":2584," race":2585," alleged":2586," Sen":2587," That":2588," bar":2589,"otland":2590," word":2591,"ulation":2592," lat":2593," famil":2594,"iod":2595," Cong":2596," Net":2597," sour":2598,"yn":2599," chief":2600,"ashington":2601,"ims":2602," goal":2603," football":2604,"cl":2605," pur":2606," building":2607,"val":2608," dam":2609," Ro":2610," seven":2611,"ests":2612," ap":2613," strugg":2614,"elling":2615,"enal":2616,"esc":2617," poll":2618," services":2619," var":2620," needs":2621," himself":2622,"rug":2623,"fully":2624,"yle":2625,"ached":2626," Ms":2627," decl":2628," wind":2629,"500":2630,"par":2631," aw":2632,"First":2633,"lymp":2634," celebr":2635," execut":2636,"aur":2637," living":2638,"medi":2639," nation":2640," abs":2641," anything":2642,"ging":2643," cult":2644,"ivid":2645," compan":2646," states":2647," father":2648,"-up":2649," Pl":2650," director":2651," available":2652," proper":2653," AI":2654,"por":2655,"read":2656," seek":2657,"da":2658,"ators":2659,"ban":2660,"Tr":2661,"oring":2662," lives":2663," stop":2664," respond":2665," latest":2666," mass":2667," difficult":2668," detail":2669,"ently":2670," tem":2671,"iety":2672," challeng":2673,"46":2674," eight":2675,"html":2676," actually":2677,"aul":2678,"uel":2679," Geor":2680," discuss":2681," ple":2682,"No":2683," fell":2684," bank":2685," travel":2686," <":2687," space":2688," Olymp":2689," creat":2690," profess":2691,"ively":2692,"ream":2693," tour":2694," TV":2695," especially":2696,"irc":2697," meeting":2698," ban":2699," round":2700," financial":2701," leave":2702,"ribut":2703,"ks":2704,"atic":2705," German":2706," conv":2707,"room":2708,"agram":2709,"rought":2710," red":2711," enjoy":2712," States":2713,"anger":2714," focus":2715," bad":2716,".com":2717,">,\"\"":2718," students":2719," Labour":2720," ...":2721,"hold":2722," coll":2723," potential":2724,"78":2725," sen":2726," Dav":2727,"arty":2728," player":2729," America":2730," period":2731," benefit":2732," despite":2733,"My":2734," non":2735," soon":2736," Palest":2737,"ocu":2738,"To":2739,"epend":2740,"to":2741,"ana":2742," den":2743," hospital":2744,"edd":2745," light":2746,"band":2747," Or":2748," position":2749," conn":2750," claimed":2751," Washington":2752,"ips":2753," respons":2754,"ural":2755," serious":2756," federal":2757," expert":2758," Scotland":2759,"duced":2760," mid":2761," rate":2762," coach":2763," di":2764," road":2765," stra":2766," Ed":2767," Scott":2768," industry":2769,"onse":2770," September":2771," tit":2772,"\":\"<":2773," parents":2774,"selves":2775,"ogn":2776," net":2777," Sun":2778,"ery":2779," argu":2780," European":2781," Ass":2782,"ape":2783," received":2784," include":2785," morning":2786,"hers":2787," else":2788," huge":2789,"omin":2790," El":2791," dest":2792,"Is":2793,"icle":2794," Ang":2795," prob":2796,"ccording":2797," complete":2798,"gency":2799," Can":2800," Count":2801,"though":2802," meas":2803," presidential":2804,"atives":2805," mis":2806," Iran":2807,"Last":2808," similar":2809,"lish":2810,"ming":2811,"ett":2812,"ction":2813," single":2814,"nal":2815," needed":2816," provide":2817," August":2818,"ises":2819,"ala":2820," plat":2821,"irmed":2822," continued":2823,"31":2824,"ada":2825," companies":2826," env":2827," resident":2828,"ibility":2829," immedi":2830," nothing":2831," pract":2832," secret":2833,"ael":2834,"iec":2835,"ule":2836," protect":2837," quite":2838,".T":2839," hon":2840," mod":2841," trial":2842," self":2843," Congress":2844,"body":2845," Ab":2846," sold":2847," stage":2848,"aliforn":2849,"His":2850," border":2851," charac":2852,"65":2853,"ilt":2854," daughter":2855,"ival":2856," track":2857," Indian":2858,"ault":2859,"gest":2860,"ese":2861," neg":2862,"Dis":2863," Feb":2864,"198":2865," showed":2866," Off":2867," &":2868," gold":2869," represent":2870," mind":2871," global":2872," White":2873," Instagram":2874,"44":2875,"light":2876," civil":2877,"ara":2878," How":2879," region":2880," personal":2881,"attle":2882,"Some":2883," mot":2884,"70":2885," reason":2886," compl":2887," leading":2888," cris":2889," response":2890," shot":2891," quarter":2892," rights":2893," squ":2894," mur":2895," prison":2896," accused":2897," reports":2898," agree":2899," cross":2900," claims":2901,"cd":2902," investigation":2903," Images":2904,"hi":2905,"lin":2906,"urning":2907," economy":2908,"ients":2909,"duce":2910," drug":2911," shoot":2912," increase":2913,"alifornia":2914,"over":2915,"ca":2916,"mb":2917," buy":2918," previously":2919," review":2920," Hamas":2921," platform":2922," aut":2923," performance":2924,"reet":2925," based":2926," Mich":2927,"aper":2928,"RE":2929," Sm":2930," examp":2931," whole":2932,"ares":2933," hol":2934," larg":2935," Mus":2936," evidence":2937," Department":2938," docu":2939,"key":2940,"75":2941," ment":2942,"oe":2943," nec":2944," rather":2945,"igr":2946,"akers":2947,"rench":2948," isn":2949,"iddle":2950," gra":2951," crim":2952," popular":2953,"while":2954," Sy":2955," individ":2956," colle":2957," happened":2958," reach":2959," check":2960," higher":2961,"ges":2962," tw":2963," address":2964," confirmed":2965," remains":2966," general":2967," aud":2968," longer":2969,"kn":2970," model":2971," repl":2972,"ees":2973," wrong":2974," chance":2975," laws":2976," safety":2977,"iber":2978,"avy":2979," worked":2980," foreign":2981," safe":2982,"300":2983,"aged":2984," worth":2985," hor":2986,"usband":2987," economic":2988,"69":2989," town":2990,"earch":2991,"hest":2992," inside":2993," Joe":2994," surpris":2995,"ironment":2996," Cup":2997,".</":2998," gave":2999," susp":3000,"-in":3001," matter":3002," anyone":3003," involved":3004,"42":3005," areas":3006," release":3007," sle":3008," dro":3009," critic":3010," King":3011," administration":3012,".Text":3013," Park":3014,"08":3015," prosecut":3016,"gr":3017," workers":3018," amount":3019," Democratic":3020,"fect":3021,"ha":3022," demand":3023," problem":3024," Getty":3025,"iple":3026,"ends":3027," whose":3028," situation":3029," super":3030," brought":3031," div":3032," begin":3033,"irth":3034,"ify":3035," prior":3036," private":3037,"orters":3038," white":3039," bas":3040,"oming":3041," beaut":3042,"chie":3043,"ateg":3044," results":3045,"ened":3046," growth":3047,"ole":3048,"ze":3049," broad":3050,"sc":3051," spent":3052," California":3053," currently":3054," December":3055," port":3056," capital":3057," veh":3058," Day":3059,"\":[":3060," deter":3061," victory":3062," orig":3063,"32":3064," Just":3065,"ford":3066,"lear":3067,"emic":3068," particularly":3069," total":3070," entire":3071," Te":3072,"agn":3073,"back":3074,"ilities":3075,"58":3076," pressure":3077," Paris":3078," idea":3079," costs":3080,"ills":3081," On":3082,"68":3083,"mas":3084," hous":3085," dog":3086,"liament":3087," cases":3088,"omp":3089,"ighb":3090," BBC":3091," biggest":3092," instead":3093,"reg":3094,"oura":3095," War":3096," board":3097,"rowd":3098," husband":3099," lab":3100," Gl":3101," influ":3102," There":3103,"fer":3104," heard":3105," comb":3106,"-e":3107," bra":3108," prevent":3109,"\"},{\"_":3110,"osition":3111,"olly":3112,"ba":3113,"ocked":3114," prep":3115,"alt":3116,"udget":3117," black":3118," term":3119,"reated":3120," pain":3121," events":3122,"utin":3123,"anche":3124,"enced":3125," assist":3126,"lev":3127,"According":3128,"itness":3129,"istan":3130,"ruary":3131,"-time":3132," France":3133," z":3134,"ray":3135,"ores":3136," So":3137," pack":3138," mat":3139,"raft":3140,"fa":3141,"vered":3142," tried":3143," research":3144," member":3145," gun":3146,"alled":3147," phone":3148,"ows":3149," kids":3150,"wood":3151,"rupt":3152," field":3153," via":3154," example":3155," Ex":3156," Star":3157,"ousands":3158,"'.\n":3159,"lict":3160," Char":3161," accept":3162," speak":3163,"Display":3164,"come":3165,"ya":3166," recogn":3167," turned":3168," published":3169," happy":3170,"hood":3171," either":3172," Ke":3173," described":3174,"iger":3175,"oid":3176," manager":3177," forces":3178,"agement":3179,"62":3180," hands":3181," East":3182," educ":3183," Govern":3184," prim":3185," included":3186," fear":3187,"isl":3188," towards":3189," box":3190," violence":3191,"**":3192," If":3193," Em":3194," families":3195," appeared":3196," probably":3197," February":3198," conc":3199," concerns":3200," Med":3201,"ization":3202," average":3203,"09":3204,"Ph":3205,"uit":3206,"ww":3207," extra":3208,"Trump":3209," takes":3210," prices":3211,"350":3212," ensure":3213,"Picture":3214," knew":3215," however":3216," esc":3217,"pper":3218," opportunity":3219,"fort":3220," pred":3221," easy":3222," County":3223,"ening":3224," ep":3225," attacks":3226,"fb":3227," French":3228," grand":3229," development":3230," tro":3231,"ino":3232," pret":3233," phys":3234,"idge":3235," neighb":3236," conditions":3237,"ittee":3238," wants":3239,"iles":3240," Willi":3241,"ease":3242," achie":3243,"nings":3244," efforts":3245," themselves":3246," pair":3247,"cement":3248," spot":3249," respect":3250,"eople":3251,"ida":3252," rout":3253,"lied":3254,"77":3255,"sw":3256," clean":3257," medical":3258," Angel":3259," looked":3260,"false":3261," improve":3262," sense":3263,"irt":3264," arrested":3265," gone":3266," elections":3267," sound":3268,"amb":3269," brand":3270," questions":3271," groups":3272," allowed":3273," circ":3274,"ama":3275," changes":3276," authorities":3277,"eth":3278," cancer":3279,"ype":3280," App":3281,"620":3282,"Now":3283," sect":3284," Mo":3285," strik":3286," lack":3287," Democrats":3288," Police":3289," senior":3290,"rast":3291," bab":3292," weekend":3293," approach":3294," Australia":3295," climate":3296," launched":3297," force":3298,"ude":3299," quickly":3300," consum":3301," anti":3302," leaving":3303," environment":3304,"down":3305," song":3306,"605":3307,"All":3308," ord":3309,"59":3310," link":3311,"add":3312," create":3313," repe":3314," Party":3315," vo":3316," Christmas":3317," candidate":3318," ill":3319," Dr":3320," conflict":3321," majority":3322," terms":3323," moved":3324," charges":3325,"TV":3326," cause":3327," birth":3328," agency":3329," drink":3330," nine":3331,"icted":3332," helped":3333," aid":3334,"isc":3335,"undred":3336," regular":3337," sett":3338," training":3339," growing":3340," strike":3341," crisis":3342," park":3343," Mor":3344," Africa":3345,"ico":3346,"-based":3347,"AP":3348,"ully":3349,"ply":3350," danger":3351," Pat":3352,"rying":3353," doct":3354,"64":3355,"bur":3356," One":3357," debate":3358," vers":3359," gen":3360," To":3361," clos":3362," adding":3363," draw":3364," weap":3365,"aining":3366," decided":3367," posted":3368,"yc":3369,"}]":3370," peace":3371," contract":3372,"-g":3373,"la":3374," intro":3375,"ishing":3376," flo":3377," lower":3378,"igration":3379,"enge":3380,"ani":3381," increasing":3382,"lus":3383," piec":3384," vol":3385," consider":3386,"where":3387," crowd":3388,"estern":3389,"acing":3390," speech":3391,"erc":3392," San":3393,"These":3394," conduct":3395,"going":3396," sil":3397,"aging":3398," scene":3399," decades":3400,"inese":3401,"itc":3402," Air":3403,"ma":3404,"uty":3405," Times":3406," cannot":3407," perfect":3408," Americans":3409,"ructure":3410,"pm":3411," cam":3412," paid":3413,"asons":3414,"ension":3415," exist":3416,"het":3417,"aily":3418,"aught":3419,"-to":3420," study":3421," multiple":3422," David":3423,"ny":3424," cal":3425," oil":3426," rates":3427," looks":3428," teams":3429," ready":3430,"illed":3431,"pir":3432,"iter":3433,"itiz":3434,"istic":3435,"ressive":3436," myself":3437," amb":3438,"Im":3439," wide":3440," typ":3441," doub":3442," criminal":3443,"rap":3444," ways":3445,"olute":3446," BST":3447," contact":3448," rules":3449,"67":3450," vill":3451," winning":3452,"onst":3453," thousands":3454," ess":3455,"ique":3456," firm":3457," stat":3458," rock":3459,"445":3460,"600":3461," cast":3462," trust":3463,"fe":3464,"uries":3465," Britain":3466," Sch":3467,"ope":3468," ten":3469,"raz":3470,"apan":3471," cover":3472," emb":3473," treatment":3474,"omb":3475," James":3476," disapp":3477," unc":3478," unf":3479," centre":3480,"Be":3481," collect":3482," estab":3483,"mark":3484,"ona":3485,"ceed":3486,"eter":3487,"istry":3488," journal":3489," character":3490,"oes":3491,"reland":3492," pers":3493," date":3494," Del":3495,"igital":3496," Cons":3497," disco":3498," independ":3499," inflation":3500," pan":3501," hur":3502," itself":3503,"espite":3504,"outhern":3505," followed":3506,".,":3507,"=\\\"":3508,"anchester":3509,"aa":3510," sun":3511,"apt":3512," executive":3513,":\n":3514," maint":3515," giving":3516," goes":3517," alongside":3518,"ampionship":3519,"AT":3520," wond":3521," norm":3522,"airs":3523,"haps":3524,"iers":3525,"tr":3526," works":3527," customers":3528," property":3529,"oard":3530," reb":3531,"oo":3532," ended":3533," er":3534,"400":3535," beat":3536," vac":3537," fourth":3538," officers":3539," message":3540,"\":[{\"":3541,"df":3542,"itter":3543," bal":3544," bott":3545,"unch":3546," Street":3547," deliver":3548," fan":3549," Jack":3550," partners":3551," site":3552," wel":3553," brother":3554,"esperson":3555," fair":3556," emot":3557,"eanwhile":3558," immediately":3559,"71":3560,"arian":3561," range":3562,"ires":3563," bed":3564," Me":3565," Red":3566,"like":3567," sport":3568," legisl":3569," failed":3570," forced":3571,"ushed":3572," kick":3573," attention":3574," couldn":3575," opening":3576," Prime":3577," dram":3578,"iled":3579,"oper":3580," spending":3581," products":3582," Kore":3583," runs":3584," investment":3585,"Another":3586," levels":3587," homes":3588," sat":3589," Cor":3590," particip":3591," title":3592,"rif":3593," Roy":3594," raised":3595," hundred":3596,"asion":3597," favour":3598," Chinese":3599," spokesperson":3600," fast":3601,"isions":3602," surv":3603," explained":3604," histor":3605," production":3606," launch":3607," Serv":3608," partner":3609,"197":3610,"ervative":3611," encoura":3612," hear":3613," rise":3614," offers":3615,"ibly":3616," officer":3617," talking":3618,"><":3619," touch":3620,"vey":3621," Prem":3622," separ":3623,"ardian":3624,"bd":3625,"entially":3626," above":3627," Ste":3628,"aves":3629," gets":3630,"Our":3631,"sy":3632," anim":3633," goals":3634,"exas":3635,"Type":3636," bag":3637," sens":3638," Mark":3639,"action":3640," Bro":3641," webs":3642,"ellig":3643,"isation":3644,"ari":3645," rev":3646," convers":3647," true":3648," aim":3649," hy":3650,"illeg":3651," answ":3652,"\":{\"":3653," sched":3654,"57":3655,"itor":3656," reached":3657,"ession":3658," swe":3659," stock":3660," challenge":3661," natur":3662," includes":3663," starting":3664," problems":3665," i":3666," effort":3667," ver":3668,"ken":3669,"set":3670," La":3671," lawy":3672," slow":3673,"lying":3674," Coun":3675," Dan":3676," comments":3677," ult":3678," common":3679," Scottish":3680," rad":3681," defe":3682," Ben":3683," Los":3684," streng":3685,"ander":3686," block":3687," mill":3688," noted":3689," parties":3690,"-a":3691,"aches":3692," words":3693,"itut":3694,"89":3695,"orney":3696," bur":3697," lik":3698," technology":3699," challenges":3700,"ij":3701," base":3702,"ript":3703," calls":3704," feeling":3705," judge":3706,"sequ":3707,"vere":3708," boy":3709," commit":3710,"upreme":3711," central":3712," seems":3713," Smith":3714," blood":3715," spoke":3716," built":3717,"86":3718,"Every":3719,"resh":3720,"Tok":3721,"ingly":3722," value":3723," sleep":3724," named":3725," illeg":3726," har":3727," Paul":3728,"eed":3729,"weight":3730,"52":3731,"Published":3732," sell":3733," card":3734,"arr":3735," prime":3736," roll":3737," warned":3738," politics":3739," search":3740,"ston":3741,"anda":3742,"ression":3743," actor":3744," Ukrainian":3745," skin":3746," residents":3747,"rief":3748," meant":3749,"72":3750," Ireland":3751,"yan":3752," credit":3753," Niger":3754," Intern":3755," budget":3756,"ester":3757,"orthern":3758," sexual":3759,"aded":3760," Her":3761," conference":3762," positive":3763," injury":3764," save":3765,"ems":3766," quality":3767,"-ter":3768,"ago":3769," Japan":3770," amid":3771," changed":3772," disp":3773," source":3774," Office":3775,"cb":3776,"rees":3777," weather":3778," kept":3779," pretty":3780,"dated":3781," Res":3782," EU":3783," compared":3784,"iction":3785," joined":3786,"Not":3787,"yal":3788,"adium":3789,"ffic":3790," assault":3791," extreme":3792," nom":3793," leadership":3794,"te":3795,"},\"":3796," Chief":3797," reflect":3798," trip":3799," Secret":3800," Germany":3801,"do":3802,"196":3803," jobs":3804," Phil":3805,"Her":3806,"\"This":3807," sal":3808," Met":3809," hair":3810," Republicans":3811," straight":3812," necess":3813," green":3814," heat":3815," exact":3816," Flor":3817," crime":3818," Angeles":3819,"van":3820,"ortion":3821," Mart":3822," Manchester":3823," Bank":3824," dism":3825," returned":3826," fem":3827,"aylor":3828," users":3829," avoid":3830,"night":3831," wat":3832,"lands":3833," drive":3834," mental":3835,"rim":3836," sto":3837," With":3838," trade":3839," funding":3840," bow":3841,"oud":3842," train":3843,"ea":3844," Act":3845,"54":3846,"ugh":3847,"erry":3848,"omen":3849," Mad":3850,"shire":3851," restaur":3852," holiday":3853,"book":3854," Sing":3855,"idered":3856,"angu":3857," regul":3858," issued":3859," simply":3860,"pen":3861,"oul":3862," Sam":3863," Texas":3864,"igrants":3865," cat":3866," Mur":3867,"rab":3868,"coming":3869,"viously":3870," specific":3871," caused":3872," Associ":3873,"Getty":3874," ren":3875," alone":3876," murder":3877," sales":3878,"enty":3879,"imately":3880," communities":3881," various":3882," details":3883,".m":3884,"ously":3885," seeing":3886," associ":3887,"AS":3888,"asc":3889," Kam":3890," calling":3891," electric":3892," opened":3893,"eneral":3894," fra":3895," MP":3896," His":3897," movie":3898," network":3899," baby":3900," north":3901," En":3902," score":3903," website":3904,"elligence":3905,"Un":3906," citiz":3907," indic":3908," rare":3909," opposition":3910," district":3911," features":3912," document":3913,"Meanwhile":3914,"mit":3915,"ager":3916,"oph":3917," increased":3918," schools":3919,"ruction":3920," Michael":3921," remember":3922," signed":3923,"iam":3924,"oti":3925,"andemic":3926," Ken":3927,"iance":3928," parts":3929," appoint":3930," remark":3931," throughout":3932," passed":3933," cash":3934,"oman":3935,"raw":3936," behav":3937," Government":3938," wild":3939,"iced":3940,"iful":3941," sust":3942,"astic":3943," largest":3944,"aming":3945," Tik":3946," league":3947,"yond":3948,"azon":3949,"cy":3950," fest":3951," evening":3952," feels":3953," charge":3954," content":3955,").":3956,"New":3957," boss":3958," gas":3959," charged":3960," Senate":3961,"olution":3962," incred":3963," terror":3964,"Despite":3965,"uf":3966,"erve":3967," path":3968," mater":3969,"oms":3970," boost":3971," rain":3972,"bed":3973," GM":3974," numbers":3975," highest":3976," housing":3977," Mac":3978," sports":3979," regard":3980," sometimes":3981," injured":3982,"EO":3983,"oking":3984," prem":3985," thinking":3986," heavy":3987," agreed":3988," created":3989,"HS":3990,"Up":3991,"rel":3992,"ille":3993,"anced":3994," choice":3995," Council":3996,"urch":3997,"vention":3998," afford":3999}